<unk>	0
<s>	0
</s>	0
<PAD>	0
<UNK>	0
▁t	-0
▁a	-1
he	-2
in	-3
▁s	-4
▁w	-5
ou	-6
nd	-7
re	-8
▁h	-9
▁o	-10
▁the	-11
it	-12
er	-13
▁b	-14
▁m	-15
at	-16
▁and	-17
▁f	-18
ing	-19
▁he	-20
▁c	-21
ed	-22
is	-23
en	-24
▁to	-25
as	-26
▁th	-27
▁d	-28
on	-29
ll	-30
an	-31
▁in	-32
or	-33
▁l	-34
▁of	-35
ar	-36
▁p	-37
es	-38
no	-39
om	-40
▁I	-41
▁y	-42
▁ha	-43
..	-44
▁be	-45
▁g	-46
▁no	-47
ly	-48
▁you	-49
▁on	-50
le	-51
▁it	-52
im	-53
▁e	-54
▁was	-55
ut	-56
▁that	-57
ve	-58
▁u	-59
et	-60
st	-61
▁her	-62
gh	-63
se	-64
ce	-65
ith	-66
▁his	-67
▁with	-68
ver	-69
ld	-70
▁for	-71
ay	-72
ent	-73
▁wh	-74
▁st	-75
▁“	-76
id	-77
ow	-78
▁re	-79
▁not	-80
ir	-81
▁she	-82
ad	-83
▁r	-84
ch	-85
▁him	-86
out	-87
▁as	-88
ter	-89
ov	-90
▁is	-91
▁at	-92
▁H	-93
▁A	-94
al	-95
▁all	-96
▁we	-97
▁had	-98
ke	-99
ion	-100
oo	-101
▁sh	-102
▁T	-103
ni	-104
ck	-105
her	-106
ould	-107
ough	-108
am	-109
▁but	-110
ri	-111
▁me	-112
▁He	-113
▁up	-114
ome	-115
ill	-116
ore	-117
▁su	-118
th	-119
ol	-120
▁an	-121
▁se	-122
▁li	-123
▁The	-124
▁S	-125
ess	-126
▁so	-127
lf	-128
ot	-129
▁k	-130
▁have	-131
el	-132
▁al	-133
and	-134
red	-135
very	-136
▁my	-137
▁man	-138
pp	-139
ct	-140
▁fr	-141
▁And	-142
king	-143
ne	-144
▁do	-145
self	-146
all	-147
ain	-148
ven	-149
if	-150
▁though	-151
ant	-152
ble	-153
ur	-154
...	-155
▁con	-156
ss	-157
▁R	-158
ght	-159
▁D	-160
art	-161
pe	-162
▁M	-163
our	-164
▁has	-165
ust	-166
▁de	-167
▁from	-168
ra	-169
,”	-170
ard	-171
▁ta	-172
em	-173
▁ab	-174
▁whe	-175
▁will	-176
--	-177
ame	-178
▁by	-179
ous	-180
▁ex	-181
▁int	-182
▁who	-183
ked	-184
▁fe	-185
▁go	-186
▁are	-187
▁one	-188
▁were	-189
▁sa	-190
▁what	-191
ive	-192
ic	-193
▁W	-194
ast	-195
one	-196
▁out	-197
ro	-198
▁too	-199
us	-200
nia	-201
....	-202
▁now	-203
ounia	-204
▁more	-205
un	-206
▁would	-207
ge	-208
qu	-209
kol	-210
ood	-211
il	-212
ul	-213
▁Dounia	-214
itt	-215
▁po	-216
▁there	-217
▁B	-218
hing	-219
ers	-220
▁ch	-221
▁or	-222
ation	-223
▁this	-224
!”	-225
▁whi	-226
▁even	-227
▁like	-228
▁when	-229
au	-230
ther	-231
▁some	-232
▁your	-233
now	-234
na	-235
▁dr	-236
▁tim	-237
▁wor	-238
▁been	-239
kov	-240
ong	-241
▁It	-242
dd	-243
▁P	-244
are	-245
hat	-246
▁co	-247
▁loo	-248
nikov	-249
▁about	-250
▁could	-251
ep	-252
▁they	-253
▁j	-254
ist	-255
▁com	-256
▁know	-257
▁very	-258
▁ag	-259
▁But	-260
▁them	-261
um	-262
ind	-263
way	-264
▁ro	-265
ight	-266
▁into	-267
hed	-268
▁am	-269
▁le	-270
▁us	-271
ress	-272
askol	-273
▁every	-274
askolnikov	-275
ity	-276
ort	-277
▁She	-278
▁then	-279
▁Raskolnikov	-280
od	-281
pt	-282
ice	-283
?”	-284
ry	-285
▁L	-286
ite	-287
▁time	-288
▁himself	-289
▁‘	-290
▁litt	-291
wn	-292
▁tw	-293
reat	-294
▁little	-295
ig	-296
own	-297
▁ne	-298
▁qu	-299
ovna	-300
▁fa	-301
▁sp	-302
▁only	-303
▁which	-304
ear	-305
ell	-306
▁af	-307
▁cl	-308
▁can	-309
▁hand	-310
▁room	-311
▁said	-312
ass	-313
ide	-314
ost	-315
fore	-316
ady	-317
▁bl	-318
nder	-319
▁day	-320
▁over	-321
ag	-322
ound	-323
▁old	-324
▁before	-325
op	-326
te	-327
ty	-328
▁v	-329
ure	-330
thing	-331
ng	-332
ack	-333
est	-334
ick	-335
▁br	-336
ance	-337
▁off	-338
▁once	-339
bl	-340
ink	-341
ken	-342
ness	-343
other	-344
nt	-345
row	-346
▁fir	-347
▁let	-348
imp	-349
able	-350
oman	-351
▁Mar	-352
▁any	-353
▁did	-354
ather	-355
▁down	-356
▁under	-357
ud	-358
ave	-359
▁Pet	-360
▁how	-361
▁such	-362
▁thought	-363
ci	-364
fe	-365
▁if	-366
▁beg	-367
▁young	-368
.”	-369
van	-370
▁fl	-371
dden	-372
▁may	-373
▁Ivan	-374
▁come	-375
▁after	-376
▁first	-377
▁sudden	-378
ap	-379
▁G	-380
ate	-381
ose	-382
▁un	-383
augh	-384
▁get	-385
▁sir	-386
▁two	-387
▁came	-388
▁feel	-389
▁upon	-390
▁went	-391
▁without	-392
ft	-393
▁F	-394
▁N	-395
▁ma	-396
omet	-397
ried	-398
▁our	-399
▁last	-400
▁other	-401
▁whole	-402
▁woman	-403
▁O	-404
▁ey	-405
ally	-406
▁pre	-407
▁wal	-408
ac	-409
ya	-410
ade	-411
▁mon	-412
▁say	-413
▁somet	-414
ia	-415
▁Y	-416
▁n	-417
▁own	-418
▁put	-419
▁comp	-420
▁drun	-421
▁than	-422
▁want	-423
▁underst	-424
ild	-425
man	-426
▁pe	-427
ater	-428
ened	-429
vern	-430
▁cle	-431
▁str	-432
▁eyes	-433
▁happ	-434
▁just	-435
▁again	-436
▁mother	-437
▁nothing	-438
hy	-439
▁K	-440
elt	-441
urn	-442
▁ac	-443
▁wa	-444
▁wr	-445
▁don	-446
▁head	-447
▁made	-448
▁great	-449
ful	-450
hin	-451
irl	-452
▁ar	-453
▁ke	-454
▁pl	-455
▁sc	-456
ence	-457
ings	-458
ream	-459
▁bec	-460
▁way	-461
▁long	-462
▁year	-463
▁shout	-464
▁Ivanovna	-465
ie	-466
ily	-467
uch	-468
▁bo	-469
▁sm	-470
ards	-471
itch	-472
▁mat	-473
▁rou	-474
▁thr	-475
▁going	-476
▁month	-477
▁shall	-478
▁suddenly	-479
▁something	-480
fa	-481
▁_	-482
ull	-483
ved	-484
pect	-485
▁see	-486
▁Petr	-487
▁away	-488
▁back	-489
▁cons	-490
▁felt	-491
▁girl	-492
▁looked	-493
▁herself	-494
▁understand	-495
ens	-496
ine	-497
ree	-498
▁pr	-499
ered	-500
here	-501
▁ind	-502
▁sha	-503
▁face	-504
▁must	-505
▁child	-506
▁hands	-507
▁stood	-508
aughter	-509
▁tavern	-510
az	-511
bly	-512
ert	-513
ren	-514
▁Mr	-515
▁lo	-516
ment	-517
oney	-518
▁exp	-519
▁mom	-520
▁res	-521
iness	-522
▁cont	-523
▁make	-524
▁pass	-525
▁seem	-526
nother	-527
▁money	-528
▁letter	-529
▁moment	-530
ark	-531
ary	-532
ish	-533
mel	-534
vid	-535
▁tr	-536
adov	-537
onia	-538
pped	-539
▁app	-540
▁pro	-541
ering	-542
▁part	-543
▁heart	-544
▁their	-545
meladov	-546
▁should	-547
▁another	-548
▁shouted	-549
ak	-550
ang	-551
ina	-552
▁gl	-553
▁op	-554
▁rem	-555
▁why	-556
▁What	-557
▁cart	-558
inking	-559
▁Sonia	-560
▁drunk	-561
▁quite	-562
▁everything	-563
air	-564
ase	-565
erv	-566
▁At	-567
▁sl	-568
bles	-569
ting	-570
ways	-571
▁pol	-572
▁crow	-573
▁stre	-574
▁word	-575
ovitch	-576
▁Marmeladov	-577
,’	-578
av	-579
cl	-580
age	-581
ank	-582
ons	-583
ssi	-584
▁In	-585
▁hu	-586
ious	-587
▁For	-588
▁imp	-589
▁per	-590
▁spe	-591
▁yes	-592
ready	-593
▁sort	-594
▁began	-595
▁thing	-596
aterina	-597
▁always	-598
ka	-599
▁C	-600
ace	-601
ied	-602
ute	-603
▁Th	-604
▁ob	-605
ched	-606
▁att	-607
▁good	-608
▁mind	-609
▁most	-610
▁much	-611
▁crowd	-612
▁walked	-613
▁already	-614
▁roubles	-615
▁Katerina	-616
ff	-617
▁(	-618
cks	-619
ife	-620
iss	-621
ner	-622
ret	-623
ause	-624
vers	-625
▁His	-626
▁Rod	-627
▁add	-628
▁bet	-629
▁dis	-630
▁kne	-631
▁They	-632
▁cour	-633
▁door	-634
▁here	-635
▁inde	-636
▁take	-637
▁turn	-638
▁wife	-639
▁dream	-640
▁still	-641
▁years	-642
▁father	-643
▁seemed	-644
be	-645
ks	-646
ire	-647
ange	-648
ared	-649
ated	-650
ouse	-651
ving	-652
▁You	-653
▁ago	-654
▁fam	-655
▁ref	-656
▁set	-657
ently	-658
ought	-659
wards	-660
▁fell	-661
▁home	-662
▁left	-663
▁life	-664
▁mean	-665
▁tell	-666
ressed	-667
▁Rodya	-668
▁drink	-669
▁round	-670
▁matter	-671
▁looking	-672
▁through	-673
▁children	-674
uc	-675
--“	-676
hes	-677
ock	-678
per	-679
▁Mi	-680
ince	-681
ople	-682
▁che	-683
ister	-684
kolka	-685
pecks	-686
▁dark	-687
▁dist	-688
▁forg	-689
▁give	-690
▁pers	-691
▁side	-692
▁simp	-693
▁thir	-694
▁took	-695
▁used	-696
▁There	-697
▁along	-698
▁cried	-699
▁heard	-700
▁taken	-701
▁think	-702
▁those	-703
▁three	-704
▁street	-705
▁Mikolka	-706
▁copecks	-707
aps	-708
ath	-709
day	-710
for	-711
ign	-712
sel	-713
ted	-714
▁Do	-715
▁gr	-716
▁ho	-717
▁ni	-718
▁pa	-719
enty	-720
most	-721
read	-722
▁bes	-723
▁bus	-724
▁got	-725
▁gre	-726
▁mar	-727
ating	-728
▁That	-729
▁cert	-730
▁hair	-731
▁meet	-732
▁rest	-733
▁soon	-734
▁well	-735
▁right	-736
▁comple	-737
▁myself	-738
co	-739
iz	-740
sw	-741
up	-742
ach	-743
ced	-744
ere	-745
ged	-746
hen	-747
ies	-748
ise	-749
oun	-750
ows	-751
▁cr	-752
andl	-753
ount	-754
ross	-755
▁God	-756
▁Why	-757
▁dra	-758
▁ent	-759
▁hus	-760
▁men	-761
▁rag	-762
▁deal	-763
▁mare	-764
▁read	-765
▁stud	-766
▁being	-767
▁house	-768
▁might	-769
▁course	-770
▁indeed	-771
▁people	-772
▁police	-773
▁complete	-774
▁daughter	-775
aï	-776
bt	-777
ix	-778
ue	-779
asy	-780
ber	-781
cei	-782
ect	-783
ont	-784
ord	-785
otr	-786
rem	-787
umi	-788
ves	-789
▁ed	-790
▁en	-791
band	-792
haps	-793
icul	-794
iven	-795
ning	-796
▁Raz	-797
▁acc	-798
▁cra	-799
▁des	-800
▁end	-801
▁fri	-802
▁hor	-803
▁tal	-804
▁ter	-805
▁tri	-806
▁won	-807
rying	-808
▁This	-809
▁answ	-810
▁does	-811
▁gave	-812
▁half	-813
▁heav	-814
▁look	-815
▁show	-816
▁step	-817
▁town	-818
▁work	-819
estion	-820
inging	-821
umihin	-822
▁clear	-823
▁landl	-824
▁stair	-825
▁better	-826
▁sister	-827
▁because	-828
▁certain	-829
▁feeling	-830
▁husband	-831
▁respect	-832
▁happened	-833
▁question	-834
▁Razumihin	-835
.’	-836
cy	-837
lp	-838
og	-839
ps	-840
uz	-841
aïl	-842
ces	-843
led	-844
rig	-845
ten	-846
ung	-847
urg	-848
use	-849
▁ad	-850
empt	-851
ense	-852
ised	-853
leep	-854
yotr	-855
▁Luz	-856
▁dif	-857
▁far	-858
▁new	-859
▁rel	-860
▁sto	-861
▁yet	-862
aïlov	-863
ement	-864
ether	-865
oured	-866
▁Svid	-867
▁exce	-868
▁gent	-869
▁hear	-870
▁help	-871
▁inst	-872
▁many	-873
▁open	-874
▁poor	-875
▁real	-876
▁same	-877
▁seen	-878
▁till	-879
ceived	-880
ssible	-881
▁Marfa	-882
▁night	-883
▁somew	-884
▁spite	-885
▁these	-886
▁Luzhin	-887
▁almost	-888
▁rather	-889
▁twenty	-890
rigaïlov	-891
▁strange	-892
▁Petrovna	-893
▁landlady	-894
▁thinking	-895
▁Petrovitch	-896
▁Svidrigaïlov	-897
os	-898
so	-899
xt	-900
arn	-901
ory	-902
oud	-903
sit	-904
▁el	-905
▁em	-906
▁ir	-907
What	-908
burg	-909
ener	-910
ject	-911
ling	-912
ract	-913
▁Yes	-914
▁dec	-915
▁exc	-916
▁fif	-917
▁mor	-918
▁red	-919
▁rep	-920
▁saw	-921
▁tor	-922
▁une	-923
ained	-924
cious	-925
▁days	-926
▁dear	-927
▁full	-928
▁keep	-929
▁kind	-930
▁knew	-931
▁less	-932
▁live	-933
▁ones	-934
▁wait	-935
ations	-936
terday	-937
though	-938
▁Pyotr	-939
▁blame	-940
▁front	-941
▁heavy	-942
▁place	-943
▁remem	-944
▁stand	-945
▁table	-946
▁where	-947
ersburg	-948
onoured	-949
▁gentle	-950
▁simply	-951
▁Petersburg	-952
ev	-953
fl	-954
ha	-955
ta	-956
You	-957
end	-958
ief	-959
igh	-960
ably	-961
isit	-962
less	-963
sent	-964
▁bel	-965
▁bro	-966
▁cor	-967
▁few	-968
▁hop	-969
▁lay	-970
▁ord	-971
ellow	-972
ndred	-973
▁cler	-974
▁conf	-975
▁educ	-976
▁four	-977
▁list	-978
▁poin	-979
▁seat	-980
▁send	-981
▁serv	-982
ention	-983
▁never	-984
▁shame	-985
▁short	-986
▁family	-987
▁really	-988
▁yellow	-989
▁hundred	-990
▁perhaps	-991
▁walking	-992
▁although	-993
▁anything	-994
▁business	-995
▁everyone	-996
▁laughter	-997
▁policeman	-998
▁yesterday	-999
bb	-1000
ip	-1001
ts	-1002
And	-1003
ond	-1004
vil	-1005
▁No	-1006
▁So	-1007
▁es	-1008
▁sw	-1009
ants	-1010
cent	-1011
ctly	-1012
ging	-1013
iced	-1014
rave	-1015
teen	-1016
ured	-1017
▁abs	-1018
▁ang	-1019
▁bar	-1020
▁boy	-1021
▁hur	-1022
▁lov	-1023
▁mer	-1024
▁pac	-1025
▁pay	-1026
▁sil	-1027
▁sor	-1028
▁sou	-1029
▁spo	-1030
▁sur	-1031
▁uni	-1032
allop	-1033
ction	-1034
ising	-1035
ively	-1036
▁both	-1037
▁draw	-1038
▁find	-1039
▁flat	-1040
▁kept	-1041
▁next	-1042
▁rags	-1043
▁stra	-1044
▁weak	-1045
▁whom	-1046
itting	-1047
▁alone	-1048
▁close	-1049
▁gener	-1050
▁given	-1051
▁laugh	-1052
▁maybe	-1053
▁since	-1054
▁smart	-1055
▁times	-1056
ressing	-1057
▁coming	-1058
▁thirty	-1059
▁laughing	-1060
▁standing	-1061
cc	-1062
ms	-1063
ug	-1064
▁E	-1065
The	-1066
ash	-1067
ial	-1068
iar	-1069
inu	-1070
mer	-1071
rit	-1072
sts	-1073
uck	-1074
▁Is	-1075
▁aw	-1076
▁na	-1077
▁ra	-1078
▁te	-1079
▁vi	-1080
!...	-1081
arly	-1082
atch	-1083
ears	-1084
ever	-1085
fort	-1086
ided	-1087
ides	-1088
ined	-1089
keep	-1090
ntly	-1091
oubt	-1092
ying	-1093
▁big	-1094
▁boo	-1095
▁dro	-1096
▁mut	-1097
▁ple	-1098
▁reg	-1099
▁six	-1100
▁ten	-1101
aring	-1102
eared	-1103
ility	-1104
itter	-1105
olute	-1106
▁also	-1107
▁done	-1108
▁dust	-1109
▁earn	-1110
▁else	-1111
▁fort	-1112
▁kiss	-1113
▁past	-1114
▁peas	-1115
▁reas	-1116
▁sens	-1117
▁sure	-1118
selves	-1119
▁asked	-1120
▁breat	-1121
▁clerk	-1122
▁cross	-1123
▁doing	-1124
▁doubt	-1125
▁paces	-1126
▁tears	-1127
▁while	-1128
▁words	-1129
ression	-1130
▁compan	-1131
▁corner	-1132
▁gallop	-1133
▁months	-1134
▁notice	-1135
▁turned	-1136
▁continu	-1137
▁dressed	-1138
▁drunken	-1139
▁meeting	-1140
▁present	-1141
▁stopped	-1142
▁student	-1143
▁contempt	-1144
▁possible	-1145
▁straight	-1146
▁education	-1147
▁gentleman	-1148
▁completely	-1149
bo	-1150
ho	-1151
ny	-1152
oy	-1153
po	-1154
▁V	-1155
bit	-1156
cri	-1157
oor	-1158
rew	-1159
ror	-1160
uri	-1161
▁Le	-1162
▁ca	-1163
▁im	-1164
Well	-1165
aint	-1166
asya	-1167
cket	-1168
come	-1169
ench	-1170
full	-1171
ical	-1172
ired	-1173
llen	-1174
owed	-1175
raid	-1176
▁All	-1177
▁adv	-1178
▁arr	-1179
▁bed	-1180
▁cup	-1181
▁dut	-1182
▁ext	-1183
▁fre	-1184
▁fur	-1185
▁fut	-1186
▁ide	-1187
▁jud	-1188
▁leg	-1189
▁met	-1190
▁min	-1191
▁ran	-1192
▁ret	-1193
▁sec	-1194
alled	-1195
anged	-1196
aveta	-1197
clock	-1198
fully	-1199
tered	-1200
ushed	-1201
vered	-1202
▁When	-1203
▁beat	-1204
▁char	-1205
▁cond	-1206
▁coun	-1207
▁each	-1208
▁expl	-1209
▁fear	-1210
▁fill	-1211
▁hung	-1212
▁lost	-1213
▁love	-1214
▁mist	-1215
▁pity	-1216
▁sofa	-1217
▁supp	-1218
▁thin	-1219
▁true	-1220
ension	-1221
▁beast	-1222
▁belie	-1223
▁black	-1224
▁bring	-1225
▁chest	-1226
▁posit	-1227
▁sight	-1228
▁thick	-1229
▁tried	-1230
▁visit	-1231
astasya	-1232
izaveta	-1233
olutely	-1234
▁afraid	-1235
▁except	-1236
▁forgot	-1237
▁fright	-1238
▁future	-1239
▁passed	-1240
▁person	-1241
▁pocket	-1242
▁rouble	-1243
▁stairs	-1244
▁things	-1245
▁beating	-1246
▁brought	-1247
▁comfort	-1248
▁convers	-1249
▁sitting	-1250
▁towards	-1251
▁univers	-1252
▁honoured	-1253
▁attention	-1254
▁smartness	-1255
He	-1256
It	-1257
No	-1258
ah	-1259
hi	-1260
ky	-1261
we	-1262
wl	-1263
eks	-1264
iny	-1265
irt	-1266
kes	-1267
ook	-1268
ove	-1269
rel	-1270
rov	-1271
tog	-1272
ton	-1273
uth	-1274
whi	-1275
▁Af	-1276
▁Fr	-1277
▁On	-1278
▁We	-1279
▁hm	-1280
▁la	-1281
▁ru	-1282
▁ut	-1283
▁vo	-1284
amed	-1285
ased	-1286
aths	-1287
azed	-1288
cely	-1289
cial	-1290
fere	-1291
ffer	-1292
peci	-1293
ster	-1294
that	-1295
used	-1296
ward	-1297
▁Ger	-1298
▁Let	-1299
▁One	-1300
▁ask	-1301
▁bad	-1302
▁det	-1303
▁dri	-1304
▁fig	-1305
▁hat	-1306
▁inn	-1307
▁ins	-1308
▁lod	-1309
▁rec	-1310
▁sat	-1311
....”	-1312
acter	-1313
aking	-1314
anted	-1315
antly	-1316
ceive	-1317
eless	-1318
ented	-1319
ished	-1320
ition	-1321
orrow	-1322
▁acqu	-1323
▁cold	-1324
▁evid	-1325
▁five	-1326
▁heat	-1327
▁inqu	-1328
▁nerv	-1329
▁pick	-1330
▁pray	-1331
▁prob	-1332
▁reck	-1333
▁sank	-1334
▁says	-1335
▁sell	-1336
▁sick	-1337
▁stri	-1338
▁talk	-1339
▁wind	-1340
▁wret	-1341
iously	-1342
keeper	-1343
ooking	-1344
▁aloud	-1345
▁altog	-1346
▁blows	-1347
▁crack	-1348
▁dress	-1349
▁excit	-1350
▁floor	-1351
▁gazed	-1352
▁glass	-1353
▁grave	-1354
▁habit	-1355
▁happy	-1356
▁light	-1357
▁means	-1358
▁seven	-1359
▁shawl	-1360
▁steps	-1361
▁stick	-1362
▁truth	-1363
▁watch	-1364
▁write	-1365
earance	-1366
▁German	-1367
▁answer	-1368
▁appare	-1369
▁asleep	-1370
▁became	-1371
▁beside	-1372
▁bitter	-1373
▁enough	-1374
▁especi	-1375
▁fellow	-1376
▁figure	-1377
▁filled	-1378
▁intere	-1379
▁living	-1380
▁minute	-1381
▁opened	-1382
▁seeing	-1383
▁trying	-1384
▁besides	-1385
▁covered	-1386
▁fifteen	-1387
▁lessons	-1388
▁pension	-1389
▁shaking	-1390
▁Lizaveta	-1391
▁Nastasya	-1392
▁answered	-1393
▁drinking	-1394
▁particul	-1395
▁received	-1396
▁remember	-1397
▁character	-1398
▁somewhere	-1399
▁afterwards	-1400
▁altogether	-1401
▁appearance	-1402
▁especially	-1403
▁impression	-1404
▁university	-1405
▁conversation	-1406
ER	-1407
Oh	-1408
Th	-1409
do	-1410
ek	-1411
pr	-1412
ru	-1413
sh	-1414
to	-1415
vo	-1416
zi	-1417
zy	-1418
▁Z	-1419
But	-1420
Get	-1421
Why	-1422
ake	-1423
arm	-1424
ern	-1425
fic	-1426
ier	-1427
lev	-1428
mal	-1429
med	-1430
ody	-1431
ona	-1432
ool	-1433
ote	-1434
ult	-1435
une	-1436
urd	-1437
▁As	-1438
▁If	-1439
▁Oh	-1440
▁bu	-1441
▁fo	-1442
▁ye	-1443
ares	-1444
bezi	-1445
case	-1446
five	-1447
fles	-1448
ghed	-1449
head	-1450
ible	-1451
imes	-1452
irty	-1453
iver	-1454
part	-1455
ping	-1456
race	-1457
seem	-1458
▁Aly	-1459
▁Now	-1460
▁beh	-1461
▁bri	-1462
▁cap	-1463
▁cas	-1464
▁eff	-1465
▁hum	-1466
▁its	-1467
▁key	-1468
▁num	-1469
▁obs	-1470
▁occ	-1471
▁pot	-1472
▁rud	-1473
▁sal	-1474
▁sit	-1475
▁ste	-1476
▁sub	-1477
▁tog	-1478
▁use	-1479
▁ver	-1480
ached	-1481
ading	-1482
atter	-1483
ficul	-1484
iliar	-1485
iment	-1486
ither	-1487
ments	-1488
othes	-1489
ouses	-1490
usion	-1491
verty	-1492
▁Then	-1493
▁With	-1494
▁arms	-1495
▁bear	-1496
▁bent	-1497
▁blow	-1498
▁care	-1499
▁case	-1500
▁dign	-1501
▁dire	-1502
▁duty	-1503
▁fore	-1504
▁form	-1505
▁gone	-1506
▁grey	-1507
▁huge	-1508
▁laid	-1509
▁late	-1510
▁paid	-1511
▁plan	-1512
▁pull	-1513
▁sake	-1514
▁sent	-1515
▁slow	-1516
▁soul	-1517
▁trem	-1518
▁writ	-1519
beziat	-1520
bility	-1521
ficult	-1522
ignant	-1523
pected	-1524
reated	-1525
tering	-1526
unning	-1527
urious	-1528
▁begin	-1529
▁bread	-1530
▁clean	-1531
▁count	-1532
▁found	-1533
▁horse	-1534
▁ideas	-1535
▁inter	-1536
▁irrit	-1537
▁knees	-1538
▁later	-1539
▁liked	-1540
▁lying	-1541
▁mates	-1542
▁order	-1543
▁ready	-1544
▁refle	-1545
▁shaft	-1546
▁sleep	-1547
▁sorry	-1548
▁speak	-1549
▁start	-1550
▁surpr	-1551
▁terri	-1552
elessly	-1553
▁Alyona	-1554
▁asking	-1555
▁become	-1556
▁dreams	-1557
▁effort	-1558
▁extrem	-1559
▁friend	-1560
▁likely	-1561
▁object	-1562
▁office	-1563
▁proper	-1564
▁reason	-1565
▁reckon	-1566
▁scream	-1567
▁taking	-1568
▁uneasy	-1569
▁wanted	-1570
▁clothes	-1571
▁company	-1572
▁dignity	-1573
▁evening	-1574
▁fortune	-1575
▁instant	-1576
▁intense	-1577
▁morning	-1578
▁noticed	-1579
▁peasant	-1580
▁receive	-1581
▁service	-1582
▁special	-1583
▁Lebeziat	-1584
▁acquaint	-1585
▁appeared	-1586
▁feelings	-1587
▁intently	-1588
▁interest	-1589
▁precious	-1590
▁shameful	-1591
▁somewhat	-1592
▁together	-1593
▁wretched	-1594
▁confusion	-1595
▁difficult	-1596
▁ourselves	-1597
▁staircase	-1598
▁apparently	-1599
▁particularly	-1600
▁Lebeziatnikov	-1601
!’	-1602
),	-1603
?’	-1604
AP	-1605
Ah	-1606
_,	-1607
af	-1608
ef	-1609
gr	-1610
APT	-1611
Don	-1612
ays	-1613
but	-1614
cum	-1615
emy	-1616
eri	-1617
ety	-1618
idd	-1619
ile	-1620
ipp	-1621
its	-1622
ket	-1623
ned	-1624
not	-1625
ors	-1626
she	-1627
sky	-1628
thy	-1629
uct	-1630
ush	-1631
▁CH	-1632
▁gu	-1633
▁oh	-1634
▁wo	-1635
...”	-1636
Come	-1637
aged	-1638
andy	-1639
ates	-1640
bled	-1641
cess	-1642
edom	-1643
fect	-1644
gary	-1645
hand	-1646
ices	-1647
idge	-1648
issy	-1649
ital	-1650
osed	-1651
over	-1652
ucif	-1653
uous	-1654
wing	-1655
▁Hay	-1656
▁Her	-1657
▁Not	-1658
▁act	-1659
▁art	-1660
▁ash	-1661
▁ass	-1662
▁cal	-1663
▁car	-1664
▁cur	-1665
▁del	-1666
▁emb	-1667
▁est	-1668
▁exa	-1669
▁fac	-1670
▁fil	-1671
▁fin	-1672
▁gar	-1673
▁gas	-1674
▁gri	-1675
▁ill	-1676
▁inv	-1677
▁lau	-1678
▁lin	-1679
▁mag	-1680
▁med	-1681
▁mov	-1682
▁nag	-1683
▁pie	-1684
▁pit	-1685
▁sum	-1686
▁top	-1687
▁unt	-1688
APTER	-1689
adays	-1690
anasy	-1691
ances	-1692
bling	-1693
emyon	-1694
icate	-1695
itten	-1696
malia	-1697
nific	-1698
oulev	-1699
which	-1700
▁Have	-1701
▁Vass	-1702
▁able	-1703
▁bare	-1704
▁coat	-1705
▁copp	-1706
▁debt	-1707
▁decl	-1708
▁drew	-1709
▁fact	-1710
▁fist	-1711
▁foll	-1712
▁gard	-1713
▁hard	-1714
▁hide	-1715
▁high	-1716
▁hold	-1717
▁hope	-1718
▁kill	-1719
▁lady	-1720
▁lips	-1721
▁mine	-1722
▁need	-1723
▁pain	-1724
▁prov	-1725
▁reco	-1726
▁road	-1727
▁scar	-1728
▁seiz	-1729
▁sett	-1730
▁slip	-1731
▁sold	-1732
▁spir	-1733
▁stag	-1734
▁stif	-1735
▁suit	-1736
▁tall	-1737
▁tiny	-1738
▁told	-1739
▁tort	-1740
▁vice	-1741
▁wall	-1742
▁warm	-1743
ashion	-1744
essing	-1745
gering	-1746
ssibly	-1747
▁Where	-1748
▁added	-1749
▁begun	-1750
▁brain	-1751
▁conce	-1752
▁cupbo	-1753
▁dandy	-1754
▁death	-1755
▁decis	-1756
▁drank	-1757
▁dread	-1758
▁forth	-1759
▁green	-1760
▁judge	-1761
▁least	-1762
▁leave	-1763
▁loves	-1764
▁makes	-1765
▁marry	-1766
▁often	-1767
▁ought	-1768
▁point	-1769
▁quick	-1770
▁reput	-1771
▁small	-1772
▁sorts	-1773
▁story	-1774
▁third	-1775
▁throw	-1776
▁voice	-1777
▁wrong	-1778
▁Amalia	-1779
▁Market	-1780
▁anyone	-1781
▁bridge	-1782
▁broken	-1783
▁consid	-1784
▁couldn	-1785
▁desire	-1786
▁govern	-1787
▁houses	-1788
▁hungry	-1789
▁kissed	-1790
▁listen	-1791
▁making	-1792
▁others	-1793
▁pitied	-1794
▁please	-1795
▁rememb	-1796
▁return	-1797
▁salary	-1798
▁slowly	-1799
▁spoken	-1800
▁strang	-1801
▁struck	-1802
▁suffer	-1803
▁terror	-1804
oulevard	-1805
▁Afanasy	-1806
▁CHAPTER	-1807
▁Vassily	-1808
▁account	-1809
▁address	-1810
▁ashamed	-1811
▁beggary	-1812
▁believe	-1813
▁crossed	-1814
▁differe	-1815
▁forward	-1816
▁however	-1817
▁laughed	-1818
▁nervous	-1819
▁nowhere	-1820
▁poverty	-1821
▁silence	-1822
▁someone	-1823
▁suppose	-1824
▁talking	-1825
▁trifles	-1826
▁written	-1827
▁deceived	-1828
▁distance	-1829
▁familiar	-1830
▁muttered	-1831
▁nowadays	-1832
▁probably	-1833
▁scarcely	-1834
▁shouting	-1835
▁weakness	-1836
▁yourself	-1837
▁sometimes	-1838
▁addressing	-1839
▁beforehand	-1840
▁hopelessly	-1841
▁understood	-1842
▁respectable	-1843
To	-1844
by	-1845
ey	-1846
pl	-1847
sp	-1848
▁J	-1849
She	-1850
abl	-1851
ail	-1852
app	-1853
avi	-1854
cul	-1855
ely	-1856
eve	-1857
int	-1858
isp	-1859
mly	-1860
mon	-1861
nat	-1862
res	-1863
the	-1864
ual	-1865
udd	-1866
ump	-1867
xed	-1868
▁An	-1869
▁Of	-1870
▁To	-1871
▁ax	-1872
▁eh	-1873
▁je	-1874
▁jo	-1875
▁kn	-1876
Here	-1877
That	-1878
ages	-1879
ahar	-1880
aned	-1881
aper	-1882
arya	-1883
aven	-1884
bbed	-1885
body	-1886
ches	-1887
cond	-1888
erch	-1889
form	-1890
lend	-1891
llor	-1892
omen	-1893
ords	-1894
ouch	-1895
ours	-1896
pair	-1897
ppet	-1898
rust	-1899
ston	-1900
tain	-1901
tend	-1902
ular	-1903
vent	-1904
vour	-1905
ween	-1906
yard	-1907
▁How	-1908
▁Ost	-1909
▁Who	-1910
▁anx	-1911
▁avo	-1912
▁ben	-1913
▁bew	-1914
▁cho	-1915
▁cir	-1916
▁cot	-1917
▁cry	-1918
▁dam	-1919
▁din	-1920
▁fan	-1921
▁fat	-1922
▁fle	-1923
▁gle	-1924
▁hay	-1925
▁inf	-1926
▁mal	-1927
▁pal	-1928
▁pet	-1929
▁ser	-1930
▁tea	-1931
▁tug	-1932
▁una	-1933
ashed	-1934
ative	-1935
cumst	-1936
eness	-1937
erous	-1938
erted	-1939
evsky	-1940
haust	-1941
irely	-1942
iture	-1943
oming	-1944
oused	-1945
ously	-1946
round	-1947
seems	-1948
ually	-1949
ustom	-1950
where	-1951
▁Here	-1952
▁Well	-1953
▁agit	-1954
▁beer	-1955
▁bell	-1956
▁busy	-1957
▁conv	-1958
▁dare	-1959
▁deep	-1960
▁drag	-1961
▁empt	-1962
▁ever	-1963
▁excl	-1964
▁fair	-1965
▁fall	-1966
▁fast	-1967
▁fate	-1968
▁fond	-1969
▁fool	-1970
▁fren	-1971
▁furn	-1972
▁glad	-1973
▁grow	-1974
▁huck	-1975
▁impo	-1976
▁inno	-1977
▁kick	-1978
▁legs	-1979
▁lift	-1980
▁mark	-1981
▁nine	-1982
▁pale	-1983
▁play	-1984
▁prop	-1985
▁situ	-1986
▁soup	-1987
▁torn	-1988
▁unex	-1989
▁viol	-1990
▁weep	-1991
▁whip	-1992
lendid	-1993
llency	-1994
morrow	-1995
mother	-1996
ounced	-1997
oyment	-1998
sellor	-1999
▁Darya	-2000
▁Zahar	-2001
▁allow	-2002
▁angel	-2003
▁aston	-2004
▁aware	-2005
▁blood	-2006
▁books	-2007
▁broke	-2008
▁chief	-2009
▁cleft	-2010
▁contr	-2011
▁dirty	-2012
▁fever	-2013
▁flung	-2014
▁hesit	-2015
▁hopes	-2016
▁horri	-2017
▁loved	-2018
▁marri	-2019
▁meant	-2020
▁mercy	-2021
▁owing	-2022
▁pract	-2023
▁rooms	-2024
▁sacri	-2025
▁seems	-2026
▁sheet	-2027
▁smile	-2028
▁spoke	-2029
▁stout	-2030
▁super	-2031
▁touch	-2032
▁waked	-2033
▁wants	-2034
▁weary	-2035
▁whips	-2036
▁women	-2037
▁world	-2038
athsome	-2039
centage	-2040
erchief	-2041
ionally	-2042
ishment	-2043
looking	-2044
oundrel	-2045
ulation	-2046
▁Frants	-2047
▁Ostrov	-2048
▁across	-2049
▁behavi	-2050
▁breath	-2051
▁called	-2052
▁chance	-2053
▁clever	-2054
▁consol	-2055
▁cotton	-2056
▁crucif	-2057
▁crying	-2058
▁detail	-2059
▁either	-2060
▁experi	-2061
▁facing	-2062
▁filthy	-2063
▁forced	-2064
▁fourth	-2065
▁garden	-2066
▁hasten	-2067
▁import	-2068
▁itself	-2069
▁moving	-2070
▁picked	-2071
▁ragged	-2072
▁raised	-2073
▁refuse	-2074
▁second	-2075
▁secret	-2076
▁seized	-2077
▁shares	-2078
▁showed	-2079
▁stench	-2080
▁strike	-2081
▁strong	-2082
▁thrown	-2083
▁unable	-2084
▁versts	-2085
nificent	-2086
pectedly	-2087
▁advance	-2088
▁attempt	-2089
▁between	-2090
▁brother	-2091
▁coppers	-2092
▁counter	-2093
▁decided	-2094
▁despair	-2095
▁dropped	-2096
▁exactly	-2097
▁exhaust	-2098
▁forgive	-2099
▁freedom	-2100
▁keeping	-2101
▁leading	-2102
▁managed	-2103
▁persons	-2104
▁pointed	-2105
▁quickly	-2106
▁reached	-2107
▁refined	-2108
▁reflect	-2109
▁setting	-2110
▁settled	-2111
▁singing	-2112
▁streets	-2113
▁studies	-2114
▁wearing	-2115
▁working	-2116
▁younger	-2117
▁circumst	-2118
▁consider	-2119
▁cupboard	-2120
▁darkness	-2121
▁entirely	-2122
▁farthing	-2123
▁followed	-2124
▁forehead	-2125
▁generous	-2126
▁huckster	-2127
▁listened	-2128
▁overcome	-2129
▁possibly	-2130
▁property	-2131
▁recalled	-2132
▁sensible	-2133
▁surround	-2134
▁boulevard	-2135
▁condition	-2136
▁continued	-2137
▁different	-2138
▁explained	-2139
▁forgotten	-2140
▁furniture	-2141
▁graveyard	-2142
▁happiness	-2143
▁innkeeper	-2144
▁irritable	-2145
▁loathsome	-2146
▁questions	-2147
▁reckoning	-2148
▁scoundrel	-2149
▁shoulders	-2150
▁situation	-2151
▁surprised	-2152
▁Ivanovitch	-2153
▁absolutely	-2154
▁counsellor	-2155
▁excellency	-2156
▁excitement	-2157
▁frightened	-2158
▁government	-2159
▁impossible	-2160
▁resolutely	-2161
▁Zaharovitch	-2162
▁magnificent	-2163
▁Vassilyevsky	-2164
▁unexpectedly	-2165
▁Svidrigaïlovs	-2166
Hm	-2167
aw	-2168
ca	-2169
hr	-2170
ik	-2171
iv	-2172
li	-2173
sy	-2174
All	-2175
Hey	-2176
Let	-2177
arp	-2178
ars	-2179
asm	-2180
bed	-2181
bid	-2182
box	-2183
can	-2184
con	-2185
ead	-2186
edd	-2187
eed	-2188
een	-2189
erm	-2190
ery	-2191
eth	-2192
eva	-2193
fee	-2194
flu	-2195
ger	-2196
hys	-2197
ian	-2198
ict	-2199
iet	-2200
iew	-2201
ins	-2202
ior	-2203
isk	-2204
itc	-2205
jud	-2206
kin	-2207
lic	-2208
lop	-2209
men	-2210
mov	-2211
ney	-2212
oes	-2213
old	-2214
oof	-2215
pat	-2216
ppy	-2217
rad	-2218
ral	-2219
rap	-2220
riv	-2221
rom	-2222
rus	-2223
set	-2224
str	-2225
tic	-2226
uls	-2227
urs	-2228
vey	-2229
yod	-2230
you	-2231
▁Gr	-2232
▁Hm	-2233
▁ci	-2234
▁ik	-2235
▁ri	-2236
▁sy	-2237
▁ve	-2238
They	-2239
This	-2240
aded	-2241
airs	-2242
aled	-2243
arch	-2244
aret	-2245
arnt	-2246
arse	-2247
aste	-2248
ayed	-2249
bour	-2250
cape	-2251
cept	-2252
coat	-2253
enny	-2254
etch	-2255
evit	-2256
ffee	-2257
fice	-2258
hood	-2259
iate	-2260
iled	-2261
ited	-2262
lain	-2263
lept	-2264
miss	-2265
mory	-2266
ngth	-2267
olid	-2268
olog	-2269
oust	-2270
ower	-2271
pend	-2272
qual	-2273
rily	-2274
roar	-2275
rupt	-2276
ught	-2277
umpt	-2278
upid	-2279
urch	-2280
vere	-2281
vial	-2282
writ	-2283
▁Any	-2284
▁Bes	-2285
▁Get	-2286
▁Ind	-2287
▁arm	-2288
▁axe	-2289
▁bas	-2290
▁box	-2291
▁cab	-2292
▁cau	-2293
▁cig	-2294
▁col	-2295
▁cut	-2296
▁def	-2297
▁den	-2298
▁dim	-2299
▁eas	-2300
▁eat	-2301
▁elb	-2302
▁eng	-2303
▁enj	-2304
▁fum	-2305
▁hon	-2306
▁lad	-2307
▁lar	-2308
▁lie	-2309
▁nin	-2310
▁obl	-2311
▁obt	-2312
▁obv	-2313
▁opp	-2314
▁rev	-2315
▁sli	-2316
▁sly	-2317
▁sun	-2318
▁und	-2319
▁wax	-2320
▁wid	-2321
agine	-2322
andal	-2323
andle	-2324
antic	-2325
aster	-2326
ccess	-2327
cence	-2328
centr	-2329
chsel	-2330
cient	-2331
enses	-2332
gered	-2333
ghtly	-2334
happy	-2335
hered	-2336
icing	-2337
ingly	-2338
inion	-2339
itted	-2340
leven	-2341
order	-2342
ouble	-2343
ounds	-2344
owing	-2345
rades	-2346
upied	-2347
uring	-2348
urity	-2349
veral	-2350
words	-2351
yodor	-2352
▁From	-2353
▁Good	-2354
▁Lipp	-2355
▁Lord	-2356
▁More	-2357
▁Near	-2358
▁Neva	-2359
▁Such	-2360
▁agre	-2361
▁bold	-2362
▁boys	-2363
▁comm	-2364
▁conc	-2365
▁cost	-2366
▁degr	-2367
▁died	-2368
▁disg	-2369
▁edge	-2370
▁evil	-2371
▁fant	-2372
▁feet	-2373
▁fing	-2374
▁flew	-2375
▁food	-2376
▁fury	-2377
▁gets	-2378
▁gold	-2379
▁grew	-2380
▁hosp	-2381
▁iron	-2382
▁irre	-2383
▁jour	-2384
▁keys	-2385
▁kitc	-2386
▁loaf	-2387
▁near	-2388
▁pack	-2389
▁pave	-2390
▁pawn	-2391
▁pict	-2392
▁pill	-2393
▁pond	-2394
▁post	-2395
▁prev	-2396
▁prof	-2397
▁prom	-2398
▁quar	-2399
▁rage	-2400
▁repe	-2401
▁ring	-2402
▁rude	-2403
▁ruin	-2404
▁save	-2405
▁scow	-2406
▁sees	-2407
▁spot	-2408
▁star	-2409
▁thee	-2410
▁trib	-2411
▁usel	-2412
▁vent	-2413
▁walk	-2414
▁wedd	-2415
▁week	-2416
▁wide	-2417
▁wise	-2418
▁wood	-2419
▁wore	-2420
▁worn	-2421
Dounia	-2422
Semyon	-2423
aching	-2424
assion	-2425
cience	-2426
ctions	-2427
culiar	-2428
ighing	-2429
imless	-2430
inding	-2431
ishing	-2432
itical	-2433
licity	-2434
liness	-2435
ocking	-2436
oughly	-2437
oustac	-2438
riedly	-2439
ulsion	-2440
▁above	-2441
▁abuse	-2442
▁alive	-2443
▁alley	-2444
▁amuse	-2445
▁apart	-2446
▁appro	-2447
▁avers	-2448
▁awful	-2449
▁badly	-2450
▁beard	-2451
▁bench	-2452
▁boots	-2453
▁cards	-2454
▁cases	-2455
▁civil	-2456
▁class	-2457
▁comes	-2458
▁const	-2459
▁crazy	-2460
▁crust	-2461
▁devil	-2462
▁drive	-2463
▁empty	-2464
▁enter	-2465
▁equal	-2466
▁fifty	-2467
▁fight	-2468
▁fists	-2469
▁forty	-2470
▁frequ	-2471
▁gossi	-2472
▁grand	-2473
▁haste	-2474
▁heads	-2475
▁hurry	-2476
▁influ	-2477
▁inner	-2478
▁knows	-2479
▁learn	-2480
▁linen	-2481
▁looks	-2482
▁medal	-2483
▁merit	-2484
▁missy	-2485
▁moral	-2486
▁noble	-2487
▁oaths	-2488
▁offer	-2489
▁offic	-2490
▁paper	-2491
▁pause	-2492
▁piece	-2493
▁plans	-2494
▁prepo	-2495
▁proud	-2496
▁sense	-2497
▁sharp	-2498
▁shirt	-2499
▁shoes	-2500
▁slept	-2501
▁space	-2502
▁state	-2503
▁stock	-2504
▁terms	-2505
▁threw	-2506
▁unnot	-2507
▁utter	-2508
▁vexed	-2509
▁waist	-2510
▁walls	-2511
▁weeks	-2512
▁whisp	-2513
▁whose	-2514
▁worry	-2515
▁worse	-2516
▁worth	-2517
▁wrote	-2518
ability	-2519
ivering	-2520
ustomed	-2521
writing	-2522
▁Anyway	-2523
▁Fyodor	-2524
▁Indeed	-2525
▁absurd	-2526
▁attend	-2527
▁borrow	-2528
▁caught	-2529
▁chairs	-2530
▁cheeks	-2531
▁church	-2532
▁closed	-2533
▁coffee	-2534
▁determ	-2535
▁dinner	-2536
▁eating	-2537
▁escape	-2538
▁establ	-2539
▁expect	-2540
▁former	-2541
▁frenzy	-2542
▁garret	-2543
▁glance	-2544
▁happen	-2545
▁hardly	-2546
▁having	-2547
▁heaven	-2548
▁height	-2549
▁horror	-2550
▁inevit	-2551
▁inquir	-2552
▁leaned	-2553
▁learnt	-2554
▁lifted	-2555
▁longed	-2556
▁marked	-2557
▁market	-2558
▁memory	-2559
▁number	-2560
▁observ	-2561
▁paused	-2562
▁polite	-2563
▁poppet	-2564
▁prayed	-2565
▁prejud	-2566
▁regard	-2567
▁reluct	-2568
▁remain	-2569
▁remark	-2570
▁rising	-2571
▁rushed	-2572
▁search	-2573
▁shawls	-2574
▁sheets	-2575
▁silver	-2576
▁sticky	-2577
▁stupid	-2578
▁summer	-2579
▁thread	-2580
▁tugged	-2581
▁uproar	-2582
▁window	-2583
▁wonder	-2584
▁worked	-2585
▁writes	-2586
angement	-2587
evechsel	-2588
▁Granted	-2589
▁Looking	-2590
▁against	-2591
▁angrily	-2592
▁anxious	-2593
▁aroused	-2594
▁arrange	-2595
▁attract	-2596
▁avoided	-2597
▁careful	-2598
▁changed	-2599
▁chatter	-2600
▁cigaret	-2601
▁consent	-2602
▁consist	-2603
▁country	-2604
▁created	-2605
▁curious	-2606
▁curtain	-2607
▁details	-2608
▁doorway	-2609
▁dragged	-2610
▁drawers	-2611
▁embrace	-2612
▁evident	-2613
▁excited	-2614
▁fashion	-2615
▁fearful	-2616
▁finding	-2617
▁flushed	-2618
▁forming	-2619
▁further	-2620
▁gasping	-2621
▁getting	-2622
▁granted	-2623
▁growing	-2624
▁hideous	-2625
▁journey	-2626
▁kitchen	-2627
▁lodging	-2628
▁married	-2629
▁matters	-2630
▁meaning	-2631
▁mistake	-2632
▁moustac	-2633
▁opinion	-2634
▁partner	-2635
▁picture	-2636
▁pleased	-2637
▁prayers	-2638
▁pulling	-2639
▁reading	-2640
▁reasons	-2641
▁running	-2642
▁scandal	-2643
▁several	-2644
▁slipped	-2645
▁stepped	-2646
▁subject	-2647
▁success	-2648
▁taverns	-2649
▁treated	-2650
▁trivial	-2651
▁trouble	-2652
▁unhappy	-2653
▁useless	-2654
▁violent	-2655
▁visited	-2656
▁waiting	-2657
▁wedding	-2658
▁whether	-2659
centrated	-2660
▁arranged	-2661
▁aversion	-2662
▁brightly	-2663
▁complain	-2664
▁comrades	-2665
▁consumpt	-2666
▁cracking	-2667
▁decision	-2668
▁declared	-2669
▁disorder	-2670
▁expenses	-2671
▁finished	-2672
▁forgiven	-2673
▁hospital	-2674
▁inquisit	-2675
▁instance	-2676
▁kerchief	-2677
▁marriage	-2678
▁mistrust	-2679
▁noticing	-2680
▁numerous	-2681
▁obtained	-2682
▁occupied	-2683
▁pavement	-2684
▁peasants	-2685
▁peculiar	-2686
▁pondered	-2687
▁positive	-2688
▁reaching	-2689
▁returned	-2690
▁speaking	-2691
▁splendid	-2692
▁stranger	-2693
▁strength	-2694
▁striking	-2695
▁terrible	-2696
▁terribly	-2697
▁thrashed	-2698
▁wringing	-2699
▁agitation	-2700
▁behaviour	-2701
▁certainly	-2702
▁companion	-2703
▁concealed	-2704
▁consented	-2705
▁crucified	-2706
▁enjoyment	-2707
▁exhausted	-2708
▁expressed	-2709
▁extremely	-2710
▁hurriedly	-2711
▁important	-2712
▁influence	-2713
▁innocence	-2714
▁malignant	-2715
▁obviously	-2716
▁practical	-2717
▁respected	-2718
▁sacrifice	-2719
▁screaming	-2720
▁stockings	-2721
▁talkative	-2722
▁trembling	-2723
▁unnoticed	-2724
▁Frantsovna	-2725
▁Fyodorovna	-2726
▁accustomed	-2727
▁bitterness	-2728
▁compassion	-2729
▁experience	-2730
▁generation	-2731
▁inevitable	-2732
▁percentage	-2733
▁positively	-2734
▁reputation	-2735
▁simplicity	-2736
▁staggering	-2737
▁themselves	-2738
▁consolation	-2739
▁continually	-2740
▁handwriting	-2741
▁reluctantly	-2742
▁remembering	-2743
▁tribulation	-2744
▁Lippevechsel	-2745
▁acquaintance	-2746
▁astonishment	-2747
▁concentrated	-2748
▁contemptuous	-2749
▁surroundings	-2750
▁acquaintances	-2751
▁exceptionally	-2752
).	-2753
Be	-2754
KO	-2755
ME	-2756
My	-2757
NI	-2758
Qu	-2759
So	-2760
St	-2761
_?	-2762
bs	-2763
ex	-2764
gl	-2765
gn	-2766
gy	-2767
lo	-2768
my	-2769
oz	-2770
tc	-2771
ux	-2772
wo	-2773
xc	-2774
zz	-2775
’?	-2776
?--	-2777
Did	-2778
How	-2779
Mar	-2780
Yes	-2781
ags	-2782
aim	-2783
als	-2784
ati	-2785
aun	-2786
aut	-2787
awn	-2788
bac	-2789
bar	-2790
bye	-2791
cce	-2792
com	-2793
dom	-2794
eem	-2795
eep	-2796
elf	-2797
enu	-2798
faw	-2799
wr	-2800
ffs	-2801
has	-2802
hip	-2803
how	-2804
ids	-2805
ilt	-2806
ium	-2807
let	-2808
lex	-2809
mbl	-2810
nic	-2811
nig	-2812
omy	-2813
ork	-2814
orn	-2815
oth	-2816
ott	-2817
oup	-2818
par	-2819
ped	-2820
pes	-2821
que	-2822
rav	-2823
run	-2824
ses	-2825
tem	-2826
ugg	-2827
unk	-2828
urm	-2829
urp	-2830
uts	-2831
vas	-2832
voc	-2833
wel	-2834
yle	-2835
▁Be	-2836
▁Go	-2837
▁II	-2838
▁Im	-2839
▁Or	-2840
▁Qu	-2841
▁Sh	-2842
▁St	-2843
▁Su	-2844
▁ba	-2845
▁ce	-2846
▁cu	-2847
▁di	-2848
▁ga	-2849
▁gi	-2850
▁id	-2851
▁sk	-2852
----	-2853
From	-2854
Give	-2855
Good	-2856
Just	-2857
Look	-2858
ager	-2859
aken	-2860
amit	-2861
ands	-2862
anks	-2863
apid	-2864
arer	-2865
arsh	-2866
arth	-2867
ator	-2868
atum	-2869
bout	-2870
cies	-2871
cked	-2872
clud	-2873
cons	-2874
drap	-2875
ease	-2876
edge	-2877
efit	-2878
empl	-2879
ency	-2880
erve	-2881
fair	-2882
ffaw	-2883
have	-2884
hold	-2885
hors	-2886
ific	-2887
iged	-2888
ilst	-2889
ions	-2890
irts	-2891
itut	-2892
know	-2893
like	-2894
lled	-2895
load	-2896
mist	-2897
mpat	-2898
ners	-2899
odka	-2900
oose	-2901
orey	-2902
oyed	-2903
ozel	-2904
plex	-2905
reak	-2906
rect	-2907
rick	-2908
rict	-2909
rill	-2910
road	-2911
roat	-2912
sing	-2913
such	-2914
text	-2915
then	-2916
tory	-2917
umer	-2918
umsy	-2919
unic	-2920
unny	-2921
uses	-2922
view	-2923
what	-2924
yond	-2925
▁Can	-2926
▁Cat	-2927
▁Chr	-2928
▁Exc	-2929
▁Kap	-2930
▁Man	-2931
▁Our	-2932
▁Sch	-2933
▁Six	-2934
▁Thy	-2935
▁Two	-2936
▁Vah	-2937
▁adm	-2938
▁age	-2939
▁bal	-2940
▁bir	-2941
▁blo	-2942
▁bow	-2943
▁buy	-2944
▁coo	-2945
▁cop	-2946
▁cow	-2947
▁dar	-2948
▁der	-2949
▁etc	-2950
▁fit	-2951
▁fix	-2952
▁foo	-2953
▁glo	-2954
▁inc	-2955
▁joy	-2956
▁jug	-2957
▁lim	-2958
▁lot	-2959
▁low	-2960
▁lux	-2961
▁mad	-2962
▁mis	-2963
▁mod	-2964
▁mus	-2965
▁nap	-2966
▁nat	-2967
▁nor	-2968
▁oil	-2969
▁par	-2970
▁pen	-2971
▁pig	-2972
▁pip	-2973
▁pom	-2974
▁pus	-2975
▁rad	-2976
▁shr	-2977
▁sin	-2978
▁son	-2979
▁spl	-2980
▁sta	-2981
▁swo	-2982
▁tit	-2983
▁try	-2984
▁unf	-2985
▁unp	-2986
▁uns	-2987
▁var	-2988
▁wag	-2989
▁win	-2990
!...”	-2991
Since	-2992
Where	-2993
anced	-2994
ander	-2995
andom	-2996
arily	-2997
asted	-2998
astic	-2999
aumov	-3000
aunty	-3001
bacco	-3002
bbing	-3003
cceed	-3004
ciety	-3005
cript	-3006
ellig	-3007
ember	-3008
ernly	-3009
erved	-3010
essed	-3011
exper	-3012
feren	-3013
glass	-3014
house	-3015
icket	-3016
idden	-3017
iddle	-3018
ident	-3019
iling	-3020
ilors	-3021
inary	-3022
inced	-3023
inish	-3024
inite	-3025
inkle	-3026
ional	-3027
ivity	-3028
known	-3029
light	-3030
llect	-3031
never	-3032
orbed	-3033
orned	-3034
osity	-3035
ottom	-3036
owers	-3037
penny	-3038
pered	-3039
pping	-3040
rance	-3041
ravel	-3042
roval	-3043
since	-3044
stead	-3045
stock	-3046
table	-3047
tched	-3048
uffer	-3049
ughty	-3050
ulted	-3051
urden	-3052
ursed	-3053
usage	-3054
velop	-3055
vitch	-3056
wenty	-3057
woman	-3058
zzled	-3059
▁Come	-3060
▁Even	-3061
▁Know	-3062
▁Lady	-3063
▁Once	-3064
▁amaz	-3065
▁aver	-3066
▁bags	-3067
▁bene	-3068
▁best	-3069
▁body	-3070
▁burn	-3071
▁cape	-3072
▁chin	-3073
▁clam	-3074
▁clos	-3075
▁coll	-3076
▁cult	-3077
▁dead	-3078
▁dest	-3079
▁dish	-3080
▁drop	-3081
▁empl	-3082
▁exch	-3083
▁fest	-3084
▁fine	-3085
▁firm	-3086
▁free	-3087
▁genu	-3088
▁hang	-3089
▁hast	-3090
▁held	-3091
▁hers	-3092
▁hour	-3093
▁hurt	-3094
▁idea	-3095
▁ikon	-3096
▁king	-3097
▁leaf	-3098
▁load	-3099
▁lock	-3100
▁luck	-3101
▁meas	-3102
▁meek	-3103
▁miss	-3104
▁mood	-3105
▁move	-3106
▁neck	-3107
▁none	-3108
▁nons	-3109
▁nose	-3110
▁note	-3111
▁nuts	-3112
▁path	-3113
▁phys	-3114
▁pret	-3115
▁pudd	-3116
▁purp	-3117
▁puts	-3118
▁rank	-3119
▁rent	-3120
▁risk	-3121
▁rose	-3122
▁sack	-3123
▁scru	-3124
▁shop	-3125
▁sing	-3126
▁sink	-3127
▁slim	-3128
▁snat	-3129
▁snig	-3130
▁soft	-3131
▁song	-3132
▁spee	-3133
▁stay	-3134
▁tend	-3135
▁tore	-3136
▁unne	-3137
▁vile	-3138
▁wept	-3139
▁wine	-3140
▁wish	-3141
▁woke	-3142
▁yard	-3143
▁yawn	-3144
Father	-3145
akable	-3146
anting	-3147
asmuch	-3148
comers	-3149
ensity	-3150
erhaps	-3151
ertina	-3152
fectly	-3153
formed	-3154
gnised	-3155
haired	-3156
headed	-3157
hedral	-3158
horses	-3159
iately	-3160
ically	-3161
ilding	-3162
iments	-3163
inctly	-3164
ipping	-3165
istian	-3166
olding	-3167
oubled	-3168
ounted	-3169
rushin	-3170
seemly	-3171
tyards	-3172
ulated	-3173
verely	-3174
▁After	-3175
▁Hence	-3176
▁Kozel	-3177
▁Later	-3178
▁Quite	-3179
▁Roman	-3180
▁Since	-3181
▁Somet	-3182
▁Three	-3183
▁agree	-3184
▁among	-3185
▁angry	-3186
▁arriv	-3187
▁barge	-3188
▁beaut	-3189
▁blank	-3190
▁brand	-3191
▁brief	-3192
▁broom	-3193
▁brown	-3194
▁brute	-3195
▁carri	-3196
▁cause	-3197
▁cheer	-3198
▁convi	-3199
▁costs	-3200
▁cough	-3201
▁cream	-3202
▁creat	-3203
▁crush	-3204
▁cuffs	-3205
▁dames	-3206
▁dared	-3207
▁drove	-3208
▁dusty	-3209
▁eager	-3210
▁earth	-3211
▁entry	-3212
▁event	-3213
▁faces	-3214
▁faith	-3215
▁fancy	-3216
▁fault	-3217
▁fetch	-3218
▁fifth	-3219
▁fully	-3220
▁gates	-3221
▁girls	-3222
▁gleam	-3223
▁gover	-3224
▁grown	-3225
▁harsh	-3226
▁humil	-3227
▁hurts	-3228
▁immed	-3229
▁indec	-3230
▁keeps	-3231
▁kinds	-3232
▁knelt	-3233
▁known	-3234
▁large	-3235
▁legal	-3236
▁lines	-3237
▁match	-3238
▁merch	-3239
▁needs	-3240
▁neigh	-3241
▁occas	-3242
▁overt	-3243
▁peace	-3244
▁persu	-3245
▁petty	-3246
▁pitch	-3247
▁posts	-3248
▁press	-3249
▁pulls	-3250
▁quiet	-3251
▁rapid	-3252
▁sembl	-3253
▁separ	-3254
▁shape	-3255
▁shudd	-3256
▁sixty	-3257
▁sound	-3258
▁spent	-3259
▁spine	-3260
▁stare	-3261
▁steel	-3262
▁sting	-3263
▁stole	-3264
▁stone	-3265
▁stuck	-3266
▁style	-3267
▁teach	-3268
▁teeth	-3269
▁thank	-3270
▁tired	-3271
▁treat	-3272
▁trunk	-3273
▁uneas	-3274
▁until	-3275
▁upper	-3276
▁upset	-3277
▁vivid	-3278
▁vodka	-3279
▁waved	-3280
▁yours	-3281
▁youth	-3282
amities	-3283
cessary	-3284
ciously	-3285
fashion	-3286
forward	-3287
ificate	-3288
ildered	-3289
ination	-3290
itherto	-3291
itioned	-3292
itution	-3293
natured	-3294
nothing	-3295
parture	-3296
plexity	-3297
respect	-3298
retting	-3299
usively	-3300
vocably	-3301
wrought	-3302
▁Excuse	-3303
▁Kapern	-3304
▁Mother	-3305
▁Semyon	-3306
▁Taking	-3307
▁abroad	-3308
▁accept	-3309
▁actual	-3310
▁advice	-3311
▁affair	-3312
▁alleys	-3313
▁anyway	-3314
▁artist	-3315
▁barter	-3316
▁behind	-3317
▁beware	-3318
▁beyond	-3319
▁bottom	-3320
▁burden	-3321
▁button	-3322
▁calmly	-3323
▁candle	-3324
▁chased	-3325
▁choked	-3326
▁clerks	-3327
▁clumsy	-3328
▁colour	-3329
▁condem	-3330
▁convey	-3331
▁coward	-3332
▁crowds	-3333
▁darker	-3334
▁decide	-3335
▁depend	-3336
▁disapp	-3337
▁dreamt	-3338
▁driven	-3339
▁during	-3340
▁duties	-3341
▁easier	-3342
▁elbows	-3343
▁eleven	-3344
▁exclam	-3345
▁fairly	-3346
▁favour	-3347
▁firmly	-3348
▁fitted	-3349
▁forget	-3350
▁gossip	-3351
▁ground	-3352
▁guffaw	-3353
▁habits	-3354
▁handed	-3355
▁hearts	-3356
▁hunger	-3357
▁inform	-3358
▁insult	-3359
▁jaunty	-3360
▁joyful	-3361
▁kisses	-3362
▁latter	-3363
▁losing	-3364
▁master	-3365
▁middle	-3366
▁misery	-3367
▁modern	-3368
▁morbid	-3369
▁mutter	-3370
▁nearly	-3371
▁nerves	-3372
▁nicely	-3373
▁ninety	-3374
▁notion	-3375
▁orders	-3376
▁palate	-3377
▁partly	-3378
▁paying	-3379
▁pillow	-3380
▁pledge	-3381
▁pranks	-3382
▁random	-3383
▁remote	-3384
▁rested	-3385
▁saying	-3386
▁secure	-3387
▁senses	-3388
▁shirts	-3389
▁shiver	-3390
▁shower	-3391
▁simple	-3392
▁sobbed	-3393
▁sorrel	-3394
▁spirit	-3395
▁storey	-3396
▁sympat	-3397
▁tables	-3398
▁tapped	-3399
▁tasted	-3400
▁thirst	-3401
▁throat	-3402
▁thrust	-3403
▁ticket	-3404
▁tinkle	-3405
▁uncons	-3406
▁unmist	-3407
▁voices	-3408
▁waking	-3409
▁warmly	-3410
▁waving	-3411
▁whilst	-3412
▁winter	-3413
▁within	-3414
▁wouldn	-3415
Honoured	-3416
entioned	-3417
imlessly	-3418
ishments	-3419
istently	-3420
llection	-3421
ssessing	-3422
strained	-3423
tempered	-3424
umerable	-3425
▁Besides	-3426
▁allowed	-3427
▁average	-3428
▁benefit	-3429
▁breathe	-3430
▁burning	-3431
▁capable	-3432
▁capital	-3433
▁carried	-3434
▁cleared	-3435
▁clearly	-3436
▁closely	-3437
▁control	-3438
▁correct	-3439
▁counted	-3440
▁cracked	-3441
▁crowbar	-3442
▁crowded	-3443
▁crushed	-3444
▁culture	-3445
▁cunning	-3446
▁darling	-3447
▁develop	-3448
▁disease	-3449
▁disgust	-3450
▁drawing	-3451
▁dreaded	-3452
▁efforts	-3453
▁explain	-3454
▁express	-3455
▁fancies	-3456
▁fellows	-3457
▁figures	-3458
▁fingers	-3459
▁foolish	-3460
▁furious	-3461
▁general	-3462
▁genuine	-3463
▁gleamed	-3464
▁glowing	-3465
▁greatly	-3466
▁hanging	-3467
▁happier	-3468
▁haughty	-3469
▁hearing	-3470
▁heavily	-3471
▁history	-3472
▁imagine	-3473
▁judging	-3474
▁kicking	-3475
▁kingdom	-3476
▁knowing	-3477
▁learned	-3478
▁leather	-3479
▁lighted	-3480
▁mothers	-3481
▁objects	-3482
▁obliged	-3483
▁officer	-3484
▁oneself	-3485
▁packing	-3486
▁painted	-3487
▁palates	-3488
▁passage	-3489
▁passers	-3490
▁passion	-3491
▁perfect	-3492
▁playing	-3493
▁pomatum	-3494
▁pounced	-3495
▁pretext	-3496
▁promise	-3497
▁purpose	-3498
▁pushing	-3499
▁putting	-3500
▁raising	-3501
▁realise	-3502
▁reality	-3503
▁refused	-3504
▁regards	-3505
▁remarks	-3506
▁resting	-3507
▁restore	-3508
▁retired	-3509
▁roughly	-3510
▁sausage	-3511
▁serious	-3512
▁servant	-3513
▁smeared	-3514
▁society	-3515
▁speaker	-3516
▁spirits	-3517
▁started	-3518
▁sternly	-3519
▁submiss	-3520
▁succeed	-3521
▁swollen	-3522
▁telling	-3523
▁thickly	-3524
▁titular	-3525
▁tobacco	-3526
▁torment	-3527
▁torture	-3528
▁uniform	-3529
▁unknown	-3530
▁unstead	-3531
▁utterly	-3532
▁various	-3533
▁venture	-3534
▁visitor	-3535
▁windows	-3536
▁writing	-3537
▁yawning	-3538
fashioned	-3539
▁Honoured	-3540
▁Moreover	-3541
▁absorbed	-3542
▁accursed	-3543
▁approach	-3544
▁becoming	-3545
▁blessing	-3546
▁bringing	-3547
▁building	-3548
▁cartload	-3549
▁clinging	-3550
▁communic	-3551
▁confound	-3552
▁contrary	-3553
▁coughing	-3554
▁creature	-3555
▁decisive	-3556
▁definite	-3557
▁delicate	-3558
▁deserted	-3559
▁differen	-3560
▁directly	-3561
▁distract	-3562
▁district	-3563
▁dressing	-3564
▁earnings	-3565
▁educated	-3566
▁entrance	-3567
▁evidence	-3568
▁expected	-3569
▁fighting	-3570
▁fourteen	-3571
▁frighten	-3572
▁garments	-3573
▁goodness	-3574
▁grizzled	-3575
▁hitherto	-3576
▁horrible	-3577
▁husbands	-3578
▁insuffer	-3579
▁insulted	-3580
▁intellig	-3581
▁listener	-3582
▁mistaken	-3583
▁moreover	-3584
▁nobility	-3585
▁nonsense	-3586
▁personal	-3587
▁physical	-3588
▁pointing	-3589
▁position	-3590
▁profound	-3591
▁properly	-3592
▁provided	-3593
▁realised	-3594
▁repeated	-3595
▁rudeness	-3596
▁screamed	-3597
▁security	-3598
▁servants	-3599
▁severely	-3600
▁shocking	-3601
▁sinister	-3602
▁snatched	-3603
▁stifling	-3604
▁students	-3605
▁suitable	-3606
▁superior	-3607
▁supposed	-3608
▁surprise	-3609
▁swinging	-3610
▁tendency	-3611
▁thoughts	-3612
▁tortured	-3613
▁unseemly	-3614
▁uttering	-3615
▁watching	-3616
▁weighing	-3617
▁whatever	-3618
▁worrying	-3619
Marmeladov	-3620
experiment	-3621
▁Cathedral	-3622
▁Christian	-3623
▁Vahrushin	-3624
▁addressed	-3625
▁agreement	-3626
▁aimlessly	-3627
▁amazement	-3628
▁attempted	-3629
▁breathing	-3630
▁certainty	-3631
▁childhood	-3632
▁cigarette	-3633
▁conceited	-3634
▁conscious	-3635
▁constable	-3636
▁continual	-3637
▁convinced	-3638
▁daughters	-3639
▁departure	-3640
▁direction	-3641
▁drunkards	-3642
▁evidently	-3643
▁fantastic	-3644
▁farthings	-3645
▁governess	-3646
▁hastening	-3647
▁homewards	-3648
▁indignant	-3649
▁interview	-3650
▁listening	-3651
▁neighbour	-3652
▁perfectly	-3653
▁plaything	-3654
▁political	-3655
▁presented	-3656
▁propounds	-3657
▁quivering	-3658
▁realising	-3659
▁redoubled	-3660
▁reflected	-3661
▁relations	-3662
▁repulsion	-3663
▁searching	-3664
▁semblance	-3665
▁sensation	-3666
▁staggered	-3667
▁strangely	-3668
▁strangers	-3669
▁stretched	-3670
▁therefore	-3671
▁upsetting	-3672
▁waistcoat	-3673
▁bewildered	-3674
▁calamities	-3675
▁concertina	-3676
▁conscience	-3677
▁courtyards	-3678
▁determined	-3679
▁disrespect	-3680
▁distinctly	-3681
▁distressed	-3682
▁expression	-3683
▁frequently	-3684
▁hesitating	-3685
▁hesitation	-3686
▁moustaches	-3687
▁noticeable	-3688
▁perplexity	-3689
▁prejudices	-3690
▁recognised	-3691
▁reflecting	-3692
▁reflection	-3693
▁remembered	-3694
▁sentiments	-3695
▁sniggering	-3696
▁sufferings	-3697
▁whispering	-3698
▁Kapernaumov	-3699
▁arrangement	-3700
▁certificate	-3701
▁cleanliness	-3702
▁comfortably	-3703
▁consumptive	-3704
▁convictions	-3705
▁exclusively	-3706
▁grandmother	-3707
▁immediately	-3708
▁innumerable	-3709
▁inquisitive	-3710
▁irrevocably	-3711
▁overwrought	-3712
▁partitioned	-3713
▁Afanasyvitch	-3714
▁circumstance	-3715
▁exclamations	-3716
▁overstrained	-3717
▁recollection	-3718
▁thoughtfully	-3719
▁unmistakable	-3720
▁wretchedness	-3721
▁circumstances	-3722
▁consideration	-3723
▁prepossessing	-3724
▁understanding	-3725
▁establishments	-3726
!)	-3727
;)	-3728
AR	-3729
AS	-3730
Af	-3731
Am	-3732
As	-3733
CH	-3734
Do	-3735
IA	-3736
If	-3737
ND	-3738
NT	-3739
Of	-3740
Or	-3741
PU	-3742
Pr	-3743
RI	-3744
SH	-3745
Up	-3746
Ye	-3747
_.	-3748
_’	-3749
br	-3750
bu	-3751
cu	-3752
di	-3753
ds	-3754
ee	-3755
ew	-3756
fr	-3757
la	-3758
lt	-3759
me	-3760
mm	-3761
mn	-3762
oe	-3763
of	-3764
oh	-3765
sk	-3766
ub	-3767
vd	-3768
▁U	-3769
),”	-3770
;--	-3771
ART	-3772
Ach	-3773
His	-3774
Hol	-3775
Hop	-3776
LCH	-3777
LNI	-3778
May	-3779
Mer	-3780
One	-3781
Ple	-3782
ado	-3783
alu	-3784
anc	-3785
ane	-3786
ann	-3787
ans	-3788
ats	-3789
che	-3790
dle	-3791
doz	-3792
edi	-3793
edl	-3794
eds	-3795
edy	-3796
eer	-3797
eet	-3798
ein	-3799
Go	-3800
Hit	-3801
Tal	-3802
Wal	-3803
cry	-3804
els	-3805
ene	-3806
eng	-3807
ero	-3808
err	-3809
esu	-3810
esw	-3811
fit	-3812
fol	-3813
fya	-3814
gar	-3815
ges	-3816
gon	-3817
hew	-3818
hum	-3819
idy	-3820
iff	-3821
ify	-3822
ike	-3823
ime	-3824
imy	-3825
iom	-3826
ipt	-3827
ism	-3828
jar	-3829
ker	-3830
kew	-3831
lin	-3832
lor	-3833
may	-3834
met	-3835
mos	-3836
nal	-3837
nan	-3838
nas	-3839
nom	-3840
nou	-3841
noy	-3842
oit	-3843
oke	-3844
ola	-3845
olg	-3846
oly	-3847
pic	-3848
pir	-3849
pit	-3850
rag	-3851
ron	-3852
ros	-3853
sem	-3854
sil	-3855
six	-3856
som	-3857
spe	-3858
tes	-3859
ths	-3860
ubl	-3861
uce	-3862
uer	-3863
ues	-3864
uid	-3865
uly	-3866
val	-3867
vat	-3868
vel	-3869
wes	-3870
xim	-3871
yet	-3872
ïve	-3873
’--	-3874
”--	-3875
▁Ac	-3876
▁Ah	-3877
▁Al	-3878
▁Am	-3879
▁Co	-3880
▁Cr	-3881
▁En	-3882
▁Gi	-3883
▁IV	-3884
▁Sp	-3885
▁Wr	-3886
▁ah	-3887
▁ap	-3888
▁ef	-3889
▁ej	-3890
▁ge	-3891
▁hy	-3892
▁sn	-3893
▁ty	-3894
▁ur	-3895
▁wi	-3896
▁yo	-3897
▁‘_	-3898
,...	-3899
acs	-3900
gri	-3901
hus	-3902
iot	-3903
jun	-3904
pth	-3905
ria	-3906
rot	-3907
?”--	-3908
ERIA	-3909
Fool	-3910
Hand	-3911
Poor	-3912
Upon	-3913
Work	-3914
acch	-3915
adow	-3916
aked	-3917
alse	-3918
ames	-3919
ases	-3920
ashm	-3921
asol	-3922
atul	-3923
bing	-3924
bted	-3925
cend	-3926
cery	-3927
char	-3928
chee	-3929
cher	-3930
cise	-3931
clap	-3932
ctic	-3933
ctim	-3934
ctor	-3935
edly	-3936
elis	-3937
elve	-3938
enev	-3939
ents	-3940
eran	-3941
eshy	-3942
felt	-3943
fond	-3944
food	-3945
from	-3946
grie	-3947
hind	-3948
husi	-3949
iacs	-3950
ican	-3951
idel	-3952
ient	-3953
iest	-3954
illa	-3955
illy	-3956
imin	-3957
inet	-3958
inge	-3959
ingu	-3960
inut	-3961
iona	-3962
isan	-3963
ists	-3964
iths	-3965
itiz	-3966
iums	-3967
just	-3968
kill	-3969
land	-3970
leed	-3971
long	-3972
look	-3973
mell	-3974
mise	-3975
mony	-3976
nday	-3977
ndle	-3978
nock	-3979
oles	-3980
olia	-3981
ooth	-3982
ores	-3983
otes	-3984
outs	-3985
oves	-3986
poch	-3987
pons	-3988
port	-3989
reck	-3990
reep	-3991
rehe	-3992
resh	-3993
ring	-3994
roid	-3995
seen	-3996
spic	-3997
sque	-3998
stit	-3999
!--	-4000
bro	-4001
ils	-4002
rah	-4003
spo	-4004
▁My	-4005
?...	-4006
NISH	-4007
ains	-4008
eyed	-4009
gain	-4010
oots	-4011
rack	-4012
rain	-4013
room	-4014
stem	-4015
stor	-4016
tall	-4017
ters	-4018
this	-4019
tion	-4020
tone	-4021
uing	-4022
umps	-4023
unch	-4024
unes	-4025
ural	-4026
urmo	-4027
urst	-4028
usty	-4029
utal	-4030
utes	-4031
uthe	-4032
vell	-4033
vote	-4034
will	-4035
zens	-4036
▁...	-4037
▁AND	-4038
▁Are	-4039
▁Eng	-4040
▁Ham	-4041
▁Has	-4042
▁Hur	-4043
▁III	-4044
▁Mat	-4045
▁RAS	-4046
▁Red	-4047
▁Rem	-4048
▁See	-4049
▁Sen	-4050
▁Spe	-4051
▁Tri	-4052
▁Was	-4053
▁ach	-4054
▁ann	-4055
▁ate	-4056
▁baw	-4057
▁bay	-4058
▁bid	-4059
▁bit	-4060
▁bol	-4061
▁bre	-4062
▁cat	-4063
▁cou	-4064
▁cuc	-4065
▁ded	-4066
▁deg	-4067
▁dem	-4068
▁dow	-4069
▁eld	-4070
▁ens	-4071
▁err	-4072
▁ess	-4073
▁fee	-4074
▁flo	-4075
▁fly	-4076
▁fro	-4077
▁fru	-4078
▁fun	-4079
▁gat	-4080
▁gro	-4081
▁hal	-4082
▁hem	-4083
▁hen	-4084
▁hey	-4085
▁hoo	-4086
▁hot	-4087
▁hun	-4088
▁ink	-4089
▁isl	-4090
▁job	-4091
▁jog	-4092
▁led	-4093
▁lit	-4094
▁log	-4095
▁lur	-4096
▁nig	-4097
▁odd	-4098
▁oun	-4099
Thr	-4100
bod	-4101
eus	-4102
ilo	-4103
unt	-4104
▁PU	-4105
▁Pe	-4106
▁Pl	-4107
▁Po	-4108
!”--	-4109
azan	-4110
dare	-4111
good	-4112
iful	-4113
iler	-4114
ilit	-4115
mong	-4116
ongs	-4117
ouds	-4118
rage	-4119
rong	-4120
uled	-4121
▁bil	-4122
▁dry	-4123
▁pes	-4124
▁pin	-4125
▁pop	-4126
▁por	-4127
▁pri	-4128
▁ren	-4129
▁rom	-4130
▁row	-4131
▁run	-4132
▁rut	-4133
▁sav	-4134
▁sca	-4135
▁sch	-4136
▁sev	-4137
▁shh	-4138
▁sig	-4139
▁sne	-4140
▁soo	-4141
▁tam	-4142
▁tar	-4143
▁thu	-4144
▁tin	-4145
▁ups	-4146
▁van	-4147
▁war	-4148
▁wat	-4149
▁wel	-4150
▁wet	-4151
▁wit	-4152
▁woo	-4153
▁wra	-4154
....’	-4155
After	-4156
Could	-4157
LNIKO	-4158
Mercy	-4159
Never	-4160
PULCH	-4161
Thank	-4162
_....	-4163
ainly	-4164
alone	-4165
amous	-4166
amped	-4167
andid	-4168
antal	-4169
apest	-4170
aping	-4171
arted	-4172
asant	-4173
askov	-4174
atory	-4175
aying	-4176
bbage	-4177
bbled	-4178
bited	-4179
break	-4180
built	-4181
cerem	-4182
ciate	-4183
could	-4184
dding	-4185
ddish	-4186
dream	-4187
edily	-4188
edlam	-4189
eemer	-4190
eling	-4191
ening	-4192
erior	-4193
ersia	-4194
esser	-4195
estig	-4196
eteen	-4197
eting	-4198
fects	-4199
apt	-4200
ept	-4201
mak	-4202
▁ig	-4203
bare	-4204
cksm	-4205
elly	-4206
ften	-4207
gypt	-4208
kind	-4209
owns	-4210
umed	-4211
umes	-4212
well	-4213
▁Nor	-4214
▁dig	-4215
▁gig	-4216
▁jum	-4217
...?”	-4218
Yours	-4219
antry	-4220
boxes	-4221
dress	-4222
eping	-4223
etite	-4224
fered	-4225
ffled	-4226
flown	-4227
gress	-4228
haven	-4229
heard	-4230
hesis	-4231
hetic	-4232
iably	-4233
ierly	-4234
ieves	-4235
ifest	-4236
ified	-4237
ighed	-4238
ighty	-4239
ilies	-4240
ilure	-4241
ilway	-4242
immer	-4243
imous	-4244
inces	-4245
iolog	-4246
iring	-4247
irted	-4248
isins	-4249
ision	-4250
isted	-4251
isten	-4252
itent	-4253
lding	-4254
ledge	-4255
lling	-4256
lovna	-4257
lying	-4258
maker	-4259
mense	-4260
night	-4261
ograp	-4262
ohair	-4263
olved	-4264
onent	-4265
onour	-4266
ooped	-4267
orted	-4268
ortun	-4269
otous	-4270
ounce	-4271
ovnas	-4272
ovsky	-4273
paper	-4274
ppose	-4275
quent	-4276
raced	-4277
racts	-4278
raord	-4279
raved	-4280
reats	-4281
redit	-4282
rence	-4283
riers	-4284
seven	-4285
stain	-4286
thest	-4287
three	-4288
ticip	-4289
ucify	-4290
uelly	-4291
umber	-4292
umped	-4293
unged	-4294
ureau	-4295
using	-4296
ustle	-4297
verse	-4298
weler	-4299
back	-4300
cuss	-4301
hide	-4302
inks	-4303
ntic	-4304
rows	-4305
side	-4306
▁Rag	-4307
▁Yet	-4308
▁laz	-4309
▁vis	-4310
again	-4311
arent	-4312
arrow	-4313
estly	-4314
iance	-4315
imply	-4316
oping	-4317
ostul	-4318
ounts	-4319
pture	-4320
stret	-4321
ubine	-4322
whips	-4323
wling	-4324
would	-4325
▁Amer	-4326
▁Drun	-4327
▁Give	-4328
▁Golg	-4329
▁Holy	-4330
▁Jesu	-4331
▁Klop	-4332
▁Lead	-4333
▁Like	-4334
▁Long	-4335
▁Many	-4336
▁Most	-4337
▁Phew	-4338
▁Pros	-4339
▁Schl	-4340
▁Soon	-4341
▁Tell	-4342
▁Till	-4343
▁Turg	-4344
▁Will	-4345
▁akin	-4346
▁anew	-4347
▁aren	-4348
▁atro	-4349
▁aven	-4350
▁awry	-4351
▁bank	-4352
▁base	-4353
▁bids	-4354
▁blur	-4355
▁book	-4356
▁bore	-4357
▁boun	-4358
▁brag	-4359
▁butc	-4360
▁butt	-4361
▁call	-4362
▁cane	-4363
▁caps	-4364
▁cast	-4365
▁casu	-4366
▁cent	-4367
▁chat	-4368
▁clen	-4369
▁clue	-4370
▁clut	-4371
▁deck	-4372
▁deli	-4373
▁didn	-4374
▁disp	-4375
▁dost	-4376
▁dray	-4377
▁ease	-4378
▁easy	-4379
▁eter	-4380
▁evas	-4381
▁exam	-4382
▁eyel	-4383
▁ferv	-4384
▁foot	-4385
▁forb	-4386
▁gain	-4387
▁game	-4388
▁gasp	-4389
▁gate	-4390
▁gest	-4391
▁gidd	-4392
▁goes	-4393
▁grav	-4394
▁grip	-4395
▁hail	-4396
▁haun	-4397
▁hole	-4398
▁host	-4399
aci	-4400
ude	-4401
why	-4402
aped	-4403
apot	-4404
oats	-4405
otya	-4406
uded	-4407
yrus	-4408
▁Fre	-4409
▁Fur	-4410
▁eye	-4411
▁flu	-4412
▁mud	-4413
▁unl	-4414
acing	-4415
ately	-4416
ength	-4417
eswig	-4418
itude	-4419
nings	-4420
ribut	-4421
sence	-4422
unate	-4423
▁Thou	-4424
▁Your	-4425
▁ache	-4426
▁airl	-4427
▁arri	-4428
▁eyed	-4429
▁inau	-4430
▁inha	-4431
▁isol	-4432
▁jing	-4433
▁joke	-4434
▁jost	-4435
▁keen	-4436
▁lame	-4437
▁land	-4438
▁leav	-4439
▁lent	-4440
▁lets	-4441
▁limb	-4442
▁ling	-4443
▁lisp	-4444
▁loan	-4445
▁loat	-4446
▁loud	-4447
▁main	-4448
▁mass	-4449
▁meat	-4450
▁mere	-4451
▁mill	-4452
▁mort	-4453
▁murd	-4454
▁nags	-4455
▁name	-4456
▁oval	-4457
▁pace	-4458
▁pell	-4459
▁pint	-4460
▁pred	-4461
▁prep	-4462
▁pros	-4463
▁rack	-4464
▁rain	-4465
▁rang	-4466
▁rely	-4467
▁rend	-4468
▁resc	-4469
▁rice	-4470
▁rick	-4471
▁rive	-4472
▁roar	-4473
▁roof	-4474
▁rosy	-4475
▁salt	-4476
▁scan	-4477
▁seek	-4478
▁self	-4479
▁shan	-4480
▁shri	-4481
▁sign	-4482
▁sins	-4483
▁sole	-4484
▁spat	-4485
▁stam	-4486
▁stum	-4487
▁swan	-4488
▁thor	-4489
▁thou	-4490
▁thud	-4491
▁tipt	-4492
▁tone	-4493
▁tree	-4494
▁unad	-4495
▁unto	-4496
▁urge	-4497
▁vain	-4498
▁valu	-4499
Such	-4500
akes	-4501
aïka	-4502
fied	-4503
shot	-4504
show	-4505
uish	-4506
Sonia	-4507
There	-4508
anges	-4509
angle	-4510
bered	-4511
phere	-4512
point	-4513
utely	-4514
vided	-4515
▁Anna	-4516
▁Does	-4517
▁born	-4518
▁caut	-4519
▁dang	-4520
▁dine	-4521
▁fish	-4522
▁lang	-4523
▁news	-4524
▁panc	-4525
▁prin	-4526
▁pron	-4527
▁prud	-4528
▁unfa	-4529
▁virt	-4530
▁wake	-4531
▁wand	-4532
▁wasn	-4533
▁wave	-4534
▁wear	-4535
▁wild	-4536
▁worm	-4537
▁“...	-4538
Gallop	-4539
Please	-4540
Rather	-4541
Thirty	-4542
accept	-4543
acking	-4544
aining	-4545
ainted	-4546
alaïka	-4547
apable	-4548
apping	-4549
apsing	-4550
athful	-4551
atient	-4552
cisely	-4553
coming	-4554
conies	-4555
ctness	-4556
cument	-4557
earing	-4558
elling	-4559
enture	-4560
escend	-4561
ession	-4562
estick	-4563
everal	-4564
father	-4565
gratul	-4566
iating	-4567
idious	-4568
imable	-4569
irling	-4570
itizen	-4571
killer	-4572
missed	-4573
notted	-4574
olidly	-4575
olting	-4576
onious	-4577
onness	-4578
ooding	-4579
ording	-4580
orting	-4581
otence	-4582
ouched	-4583
ouring	-4584
ousand	-4585
perous	-4586
reased	-4587
reator	-4588
ricken	-4589
rivate	-4590
rolled	-4591
sented	-4592
shness	-4593
silver	-4594
sister	-4595
strous	-4596
swered	-4597
terior	-4598
ucting	-4599
izon	-4600
osal	-4601
pret	-4602
raff	-4603
sels	-4604
zied	-4605
▁Pav	-4606
▁lav	-4607
class	-4608
dozen	-4609
enced	-4610
ishes	-4611
mnity	-4612
ocked	-4613
range	-4614
▁Cert	-4615
▁Zeus	-4616
▁dirt	-4617
▁flaw	-4618
▁grad	-4619
▁imag	-4620
▁knee	-4621
▁lads	-4622
▁publ	-4623
▁race	-4624
▁suff	-4625
▁tied	-4626
▁unco	-4627
acchus	-4628
antage	-4629
certed	-4630
eeping	-4631
ending	-4632
ential	-4633
factor	-4634
ficing	-4635
nominy	-4636
ornful	-4637
travel	-4638
uggage	-4639
uggled	-4640
umpled	-4641
urmoil	-4642
usable	-4643
vation	-4644
vdotya	-4645
vering	-4646
▁Allow	-4647
▁Beast	-4648
▁Boots	-4649
▁Cyrus	-4650
▁Giant	-4651
▁Going	-4652
▁Often	-4653
▁Owing	-4654
▁Place	-4655
▁Round	-4656
▁Sofya	-4657
▁Thank	-4658
▁Their	-4659
▁These	-4660
▁Think	-4661
▁Would	-4662
▁aback	-4663
▁accum	-4664
▁accur	-4665
▁aches	-4666
▁alarm	-4667
▁annoy	-4668
▁arith	-4669
▁ascri	-4670
▁ashes	-4671
▁assem	-4672
▁atmos	-4673
▁authe	-4674
▁avoid	-4675
▁awake	-4676
▁axiom	-4677
▁beats	-4678
▁birds	-4679
▁bless	-4680
▁blind	-4681
▁bloss	-4682
▁bosom	-4683
▁bound	-4684
▁bowed	-4685
▁break	-4686
▁bride	-4687
▁brush	-4688
▁built	-4689
▁burst	-4690
▁canal	-4691
▁carts	-4692
▁cashm	-4693
▁casks	-4694
▁chain	-4695
▁claim	-4696
▁cling	-4697
▁coats	-4698
▁copse	-4699
Lord	-4700
Take	-4701
Then	-4702
igue	-4703
onts	-4704
when	-4705
▁law	-4706
Pyotr	-4707
ences	-4708
osure	-4709
▁Were	-4710
▁asso	-4711
▁blue	-4712
▁cere	-4713
▁flog	-4714
▁tops	-4715
berate	-4716
ements	-4717
fronts	-4718
illere	-4719
iskers	-4720
llenly	-4721
ources	-4722
relled	-4723
▁Cross	-4724
▁baser	-4725
▁below	-4726
▁candl	-4727
▁creep	-4728
▁dance	-4729
▁dealt	-4730
▁deeds	-4731
▁disli	-4732
▁doors	-4733
▁downs	-4734
▁drawn	-4735
▁dried	-4736
▁drows	-4737
▁eight	-4738
▁emaci	-4739
▁ended	-4740
▁exert	-4741
▁false	-4742
▁fence	-4743
▁final	-4744
▁finds	-4745
▁flann	-4746
▁flash	-4747
▁flats	-4748
▁flick	-4749
▁flush	-4750
▁force	-4751
▁foret	-4752
▁frame	-4753
▁gasps	-4754
▁geran	-4755
▁giddy	-4756
▁gives	-4757
▁glitt	-4758
▁goods	-4759
▁gowns	-4760
▁grace	-4761
▁grass	-4762
▁grimy	-4763
▁group	-4764
▁grows	-4765
▁guess	-4766
▁handk	-4767
▁hired	-4768
▁holid	-4769
▁hoped	-4770
▁hours	-4771
▁human	-4772
▁immov	-4773
▁indel	-4774
▁indic	-4775
▁indif	-4776
▁invol	-4777
▁knits	-4778
▁knock	-4779
▁lasts	-4780
▁level	-4781
▁likes	-4782
▁limit	-4783
▁litig	-4784
▁lived	-4785
▁lives	-4786
▁lodge	-4787
▁loose	-4788
▁lumps	-4789
▁manes	-4790
▁manus	-4791
▁mater	-4792
▁meals	-4793
▁minds	-4794
▁monum	-4795
▁mount	-4796
▁moved	-4797
▁naïve	-4798
▁nobly	-4799
law	-4800
who	-4801
hole	-4802
iefs	-4803
intz	-4804
take	-4805
umph	-4806
▁dug	-4807
▁ebb	-4808
Young	-4809
aimed	-4810
amond	-4811
bbish	-4812
taken	-4813
uries	-4814
▁Evid	-4815
▁July	-4816
▁curi	-4817
▁wond	-4818
fondly	-4819
resent	-4820
viling	-4821
▁Every	-4822
▁Image	-4823
▁birth	-4824
▁catch	-4825
▁dying	-4826
▁early	-4827
▁faint	-4828
▁maint	-4829
▁merry	-4830
▁noise	-4831
▁obedi	-4832
▁obliv	-4833
▁occur	-4834
▁older	-4835
▁outer	-4836
▁party	-4837
▁pelis	-4838
▁penny	-4839
▁pipes	-4840
▁plain	-4841
▁plant	-4842
▁poles	-4843
▁pride	-4844
▁proof	-4845
▁protr	-4846
▁quart	-4847
▁queer	-4848
▁raise	-4849
▁recei	-4850
▁recur	-4851
▁reins	-4852
▁relig	-4853
▁repro	-4854
▁satin	-4855
▁saved	-4856
▁scant	-4857
▁scene	-4858
▁shabb	-4859
▁shade	-4860
▁share	-4861
▁shell	-4862
▁shine	-4863
▁shone	-4864
▁shook	-4865
▁shops	-4866
▁silky	-4867
▁silly	-4868
▁skirt	-4869
▁slave	-4870
▁spare	-4871
▁speck	-4872
▁spect	-4873
▁spell	-4874
▁spend	-4875
▁splut	-4876
▁spoil	-4877
▁spont	-4878
▁spots	-4879
▁stove	-4880
▁straw	-4881
▁stray	-4882
▁study	-4883
▁sweet	-4884
▁swine	-4885
▁swung	-4886
▁tapes	-4887
▁thief	-4888
▁timid	-4889
▁torto	-4890
▁tough	-4891
▁trace	-4892
▁track	-4893
▁trave	-4894
▁tread	-4895
▁trial	-4896
▁trick	-4897
▁truer	-4898
▁trust	-4899
ahs	-4900
love	-4901
▁owe	-4902
▁sky	-4903
Holst	-4904
ponsi	-4905
roved	-4906
while	-4907
▁Dirt	-4908
▁Lett	-4909
▁Look	-4910
▁Love	-4911
▁Only	-4912
▁cook	-4913
Talked	-4914
andahs	-4915
attern	-4916
houses	-4917
levant	-4918
making	-4919
▁Stand	-4920
▁cheek	-4921
▁diver	-4922
▁fares	-4923
▁fears	-4924
▁invar	-4925
▁laden	-4926
▁leapt	-4927
▁smold	-4928
▁steal	-4929
▁turns	-4930
▁twice	-4931
▁unall	-4932
▁unfam	-4933
▁unres	-4934
▁unten	-4935
▁villa	-4936
▁wares	-4937
▁water	-4938
▁wears	-4939
▁weigh	-4940
▁whimp	-4941
▁whist	-4942
▁white	-4943
▁worst	-4944
▁wound	-4945
Praskov	-4946
Strange	-4947
already	-4948
aricate	-4949
cedence	-4950
cessity	-4951
charged	-4952
cluding	-4953
cribing	-4954
emplary	-4955
enching	-4956
ensions	-4957
entions	-4958
essness	-4959
estined	-4960
hearted	-4961
hideous	-4962
iculate	-4963
ificial	-4964
imental	-4965
ismayed	-4966
istance	-4967
iveness	-4968
keepers	-4969
leeding	-4970
mercial	-4971
ndering	-4972
nership	-4973
ologise	-4974
orously	-4975
ourable	-4976
partial	-4977
pendent	-4978
perhaps	-4979
picuous	-4980
poverty	-4981
ractors	-4982
reaming	-4983
reating	-4984
rehears	-4985
ressive	-4986
ributed	-4987
roiders	-4988
ruction	-4989
sixteen	-4990
speople	-4991
storied	-4992
tailors	-4993
tending	-4994
teously	-4995
thiness	-4996
ticoats	-4997
ulously	-4998
ursuing	-4999
_),	-5000
they	-5001
Missy	-5002
grown	-5003
ucted	-5004
▁Bits	-5005
▁Jack	-5006
▁Just	-5007
▁Push	-5008
▁brav	-5009
▁ejac	-5010
▁jeer	-5011
▁melt	-5012
▁mile	-5013
candle	-5014
eleven	-5015
establ	-5016
fluous	-5017
poppet	-5018
reshed	-5019
▁Missy	-5020
▁Shall	-5021
▁Words	-5022
▁admon	-5023
▁delay	-5024
▁elbow	-5025
▁facts	-5026
▁grief	-5027
▁holds	-5028
▁jokes	-5029
▁plump	-5030
▁stiff	-5031
▁waxed	-5032
▁wives	-5033
atesman	-5034
culated	-5035
edingly	-5036
pitched	-5037
urmured	-5038
vellers	-5039
venteen	-5040
welcome	-5041
▁Across	-5042
▁Bitter	-5043
▁Bother	-5044
▁Father	-5045
▁Heaven	-5046
▁Hurrah	-5047
▁Lesser	-5048
▁Listen	-5049
▁Matvey	-5050
▁Nobody	-5051
▁PUNISH	-5052
▁Persia	-5053
▁Rodion	-5054
▁Senate	-5055
▁Simply	-5056
▁Sunday	-5057
▁Thirty	-5058
▁abject	-5059
▁action	-5060
▁active	-5061
▁adores	-5062
▁affect	-5063
▁aggrie	-5064
▁agreed	-5065
▁amused	-5066
▁ascent	-5067
▁assert	-5068
▁attent	-5069
▁attire	-5070
▁backed	-5071
▁barely	-5072
▁barred	-5073
▁beaded	-5074
▁begged	-5075
▁biding	-5076
▁boiled	-5077
▁bolder	-5078
▁bought	-5079
▁brains	-5080
▁bricks	-5081
▁bundle	-5082
▁bushes	-5083
▁bustle	-5084
▁butter	-5085
▁cannot	-5086
▁canvas	-5087
▁career	-5088
▁caring	-5089
▁carrot	-5090
▁caused	-5091
▁ceased	-5092
▁chaste	-5093
▁choose	-5094
▁clouds	-5095
▁coarse	-5096
▁coldly	-5097
▁common	-5098
▁conjun	-5099
folk	-5100
▁phr	-5101
Fetch	-5102
haste	-5103
▁Phys	-5104
▁deny	-5105
▁econ	-5106
▁pork	-5107
▁rich	-5108
▁view	-5109
ieties	-5110
rupted	-5111
twenty	-5112
▁Kazan	-5113
▁aloof	-5114
▁bells	-5115
▁falls	-5116
▁fumes	-5117
▁globe	-5118
▁ikons	-5119
▁lower	-5120
▁power	-5121
▁scowl	-5122
▁solid	-5123
▁swept	-5124
▁widow	-5125
bourine	-5126
idelity	-5127
▁Beside	-5128
▁abrupt	-5129
▁afresh	-5130
▁bespat	-5131
▁boldly	-5132
▁conven	-5133
▁cooked	-5134
▁copies	-5135
▁copper	-5136
▁coster	-5137
▁craved	-5138
▁credit	-5139
▁crimin	-5140
▁curled	-5141
▁curses	-5142
▁custom	-5143
▁damned	-5144
▁daring	-5145
▁decent	-5146
▁degree	-5147
▁deject	-5148
▁design	-5149
▁devour	-5150
▁direct	-5151
▁discon	-5152
▁dismay	-5153
▁doubts	-5154
▁dozens	-5155
▁drawer	-5156
▁driver	-5157
▁earned	-5158
▁easily	-5159
▁endure	-5160
▁engage	-5161
▁errand	-5162
▁estate	-5163
▁excess	-5164
▁excite	-5165
▁excuse	-5166
▁explan	-5167
▁failed	-5168
▁famous	-5169
▁feebly	-5170
▁finger	-5171
▁fleshy	-5172
▁floors	-5173
▁fondly	-5174
▁forbid	-5175
▁frames	-5176
▁gather	-5177
▁giving	-5178
▁gloves	-5179
▁glowed	-5180
▁greasy	-5181
▁grieve	-5182
▁halted	-5183
▁hatred	-5184
▁hatter	-5185
▁helped	-5186
▁hemmed	-5187
▁highly	-5188
▁hoarse	-5189
▁honest	-5190
▁humbly	-5191
▁hummed	-5192
▁images	-5193
▁implor	-5194
▁inaudi	-5195
▁indign	-5196
▁induce	-5197
▁innate	-5198
▁invite	-5199
Beat	-5200
Keep	-5201
Step	-5202
otha	-5203
soup	-5204
----.	-5205
About	-5206
Funny	-5207
funny	-5208
prick	-5209
▁PART	-5210
▁babe	-5211
▁bald	-5212
▁idle	-5213
▁ribs	-5214
Behold	-5215
Finish	-5216
cluded	-5217
cripts	-5218
necked	-5219
▁About	-5220
▁cloth	-5221
▁cooks	-5222
▁dowry	-5223
▁fixed	-5224
▁gaily	-5225
▁goose	-5226
▁mangy	-5227
▁skull	-5228
▁split	-5229
▁stale	-5230
▁Finish	-5231
▁amuses	-5232
▁danced	-5233
▁gloomy	-5234
▁hectic	-5235
▁hidden	-5236
▁impati	-5237
▁jeered	-5238
▁joined	-5239
▁judged	-5240
▁jumped	-5241
▁ladies	-5242
▁larger	-5243
▁lately	-5244
▁lavish	-5245
▁lazily	-5246
▁lively	-5247
▁locksm	-5248
▁lodged	-5249
▁lodger	-5250
▁longer	-5251
▁loving	-5252
▁madman	-5253
▁malign	-5254
▁manner	-5255
▁meddle	-5256
▁medium	-5257
▁meekly	-5258
▁mighty	-5259
▁minded	-5260
▁mohair	-5261
▁morose	-5262
▁mostly	-5263
▁musing	-5264
▁muslin	-5265
▁mutual	-5266
▁napkin	-5267
▁nature	-5268
▁nearer	-5269
▁needed	-5270
▁nights	-5271
▁nobody	-5272
▁normal	-5273
▁obtain	-5274
▁orator	-5275
▁ounces	-5276
▁outcry	-5277
▁outspo	-5278
▁pacing	-5279
▁packed	-5280
▁parent	-5281
▁pieces	-5282
▁piping	-5283
▁powers	-5284
▁pretty	-5285
▁priest	-5286
▁prints	-5287
▁proxim	-5288
▁puddle	-5289
▁radish	-5290
▁recall	-5291
▁recent	-5292
▁redeem	-5293
▁regret	-5294
▁relief	-5295
▁relies	-5296
▁relish	-5297
▁remind	-5298
▁repeat	-5299
MENT	-5300
RIME	-5301
time	-5302
▁Ugh	-5303
bride	-5304
metic	-5305
▁ajar	-5306
▁fero	-5307
▁hamm	-5308
▁riff	-5309
▁tidy	-5310
Twenty	-5311
boding	-5312
▁CRIME	-5313
▁askew	-5314
▁smoke	-5315
▁sugar	-5316
▁trans	-5317
Perhaps	-5318
Walking	-5319
▁beauty	-5320
▁collar	-5321
▁cupola	-5322
▁events	-5323
▁lodges	-5324
▁magnan	-5325
▁outfit	-5326
▁resent	-5327
▁resist	-5328
▁retain	-5329
▁revere	-5330
▁revive	-5331
▁roused	-5332
▁rubbed	-5333
▁rudely	-5334
▁scared	-5335
▁school	-5336
▁scient	-5337
▁scrubs	-5338
▁served	-5339
▁settle	-5340
▁shadow	-5341
▁shafts	-5342
▁shaken	-5343
▁shared	-5344
▁shaved	-5345
▁shrill	-5346
▁shrink	-5347
▁sickly	-5348
▁silent	-5349
▁single	-5350
▁sleepy	-5351
▁sliced	-5352
▁smiled	-5353
▁smooth	-5354
▁snatch	-5355
▁soaked	-5356
▁softly	-5357
▁sorrow	-5358
▁sought	-5359
▁sounds	-5360
▁speaks	-5361
▁speech	-5362
▁speedy	-5363
▁spouse	-5364
▁spread	-5365
▁stains	-5366
▁stands	-5367
▁stared	-5368
▁sticks	-5369
▁stifle	-5370
▁suitor	-5371
▁summon	-5372
▁system	-5373
▁talent	-5374
▁talked	-5375
▁tallow	-5376
▁tangle	-5377
▁tantal	-5378
▁tarred	-5379
▁taught	-5380
▁teapot	-5381
▁theory	-5382
▁thrash	-5383
▁thrill	-5384
▁throws	-5385
▁travel	-5386
▁tremor	-5387
▁twelve	-5388
▁twitch	-5389
▁unfort	-5390
▁unjust	-5391
▁unwill	-5392
▁utmost	-5393
▁victim	-5394
▁waggon	-5395
▁wander	-5396
▁warmth	-5397
▁washed	-5398
▁wheels	-5399
iotic	-5400
LNIKOV	-5401
Thrash	-5402
broker	-5403
oliage	-5404
ondria	-5405
▁Egypt	-5406
▁Lewes	-5407
▁RASKO	-5408
▁Speak	-5409
▁bunch	-5410
▁depth	-5411
▁holes	-5412
▁nails	-5413
▁rusty	-5414
▁scaff	-5415
▁tinge	-5416
▁types	-5417
▁viler	-5418
▁wreck	-5419
butcher	-5420
cheeked	-5421
husiasm	-5422
ilitate	-5423
inutive	-5424
ionaire	-5425
mongers	-5426
ologues	-5427
otesque	-5428
ronting	-5429
▁Almost	-5430
▁Bedlam	-5431
▁Behind	-5432
▁Coarse	-5433
▁Enough	-5434
▁Hamlet	-5435
▁People	-5436
▁Shouts	-5437
▁Strong	-5438
▁booths	-5439
▁brutal	-5440
▁candid	-5441
▁cravat	-5442
▁devote	-5443
▁effect	-5444
▁eldest	-5445
▁ensure	-5446
▁fruits	-5447
▁hauled	-5448
▁hooked	-5449
▁hypoch	-5450
▁nigger	-5451
▁soothe	-5452
▁suspic	-5453
▁unseen	-5454
▁widows	-5455
▁willow	-5456
▁wooden	-5457
▁worthy	-5458
▁writhe	-5459
▁yonder	-5460
Katerina	-5461
Lizaveta	-5462
Nastasya	-5463
aneously	-5464
approval	-5465
criptive	-5466
emplated	-5467
enceless	-5468
erchiefs	-5469
essional	-5470
ferently	-5471
glassful	-5472
humoured	-5473
idential	-5474
immerman	-5475
ittering	-5476
lessness	-5477
nderance	-5478
nderclap	-5479
omaniacs	-5480
piration	-5481
ractised	-5482
remember	-5483
stricken	-5484
untarily	-5485
vourable	-5486
womanish	-5487
▁Another	-5488
▁Crucify	-5489
▁England	-5490
▁Freedom	-5491
▁Germans	-5492
▁Imagine	-5493
▁Nothing	-5494
▁Perhaps	-5495
▁Pushkin	-5496
▁Suppose	-5497
▁Trifles	-5498
▁Weeping	-5499
iology	-5500
ography	-5501
skirted	-5502
▁avenue	-5503
▁bounty	-5504
▁bureau	-5505
▁chinks	-5506
▁heaped	-5507
▁length	-5508
▁loudly	-5509
▁narrow	-5510
▁public	-5511
▁rescue	-5512
▁tiptoe	-5513
▁virtue	-5514
answered	-5515
iloquent	-5516
ortunity	-5517
▁Avdotya	-5518
▁Bacchus	-5519
▁Creator	-5520
▁Drunken	-5521
▁Further	-5522
▁Several	-5523
▁Without	-5524
▁abscess	-5525
▁abstain	-5526
▁abusing	-5527
▁acutely	-5528
▁adorned	-5529
▁affairs	-5530
▁amongst	-5531
▁amounts	-5532
▁ancient	-5533
▁angered	-5534
▁anguish	-5535
▁anticip	-5536
▁arrival	-5537
▁arrived	-5538
▁artisan	-5539
▁assumed	-5540
▁assured	-5541
▁bargain	-5542
▁barrows	-5543
▁bawling	-5544
▁bedroom	-5545
▁belongs	-5546
▁beneath	-5547
▁bilious	-5548
▁binding	-5549
▁blankly	-5550
▁bloated	-5551
▁bolster	-5552
▁breaths	-5553
▁buttons	-5554
▁cabbage	-5555
▁cabinet	-5556
▁carries	-5557
▁ceiling	-5558
▁central	-5559
▁changes	-5560
▁charity	-5561
▁checked	-5562
▁chemise	-5563
▁chiefly	-5564
▁choking	-5565
▁chopped	-5566
▁citizen	-5567
▁clearer	-5568
▁closing	-5569
▁collars	-5570
▁colours	-5571
▁command	-5572
▁condemn	-5573
▁coughed	-5574
▁courses	-5575
▁cramped	-5576
▁craving	-5577
▁crucify	-5578
▁cruelly	-5579
▁damsels	-5580
▁dealing	-5581
▁deceive	-5582
▁declare	-5583
▁defects	-5584
▁degrade	-5585
▁delayed	-5586
▁demands	-5587
▁denying	-5588
▁depends	-5589
▁destiny	-5590
▁diamond	-5591
▁digging	-5592
▁dinners	-5593
▁discuss	-5594
▁dispute	-5595
▁divided	-5596
▁dreamed	-5597
▁dreamer	-5598
▁dresses	-5599
▁chintz	-5600
Holstein	-5601
▁beliefs	-5602
▁bravado	-5603
▁driving	-5604
▁eagerly	-5605
▁earthly	-5606
▁economy	-5607
▁emptied	-5608
▁endured	-5609
▁engaged	-5610
▁enlight	-5611
▁entered	-5612
▁eternal	-5613
▁examine	-5614
▁excuses	-5615
▁expense	-5616
▁exploit	-5617
▁extreme	-5618
▁eyelids	-5619
▁failure	-5620
▁falling	-5621
▁fantasy	-5622
▁fasting	-5623
▁fatigue	-5624
▁festive	-5625
▁finally	-5626
▁flannel	-5627
▁flashed	-5628
▁flighty	-5629
▁floated	-5630
▁flowers	-5631
▁folding	-5632
▁foliage	-5633
▁footing	-5634
▁frantic	-5635
▁friends	-5636
▁fullest	-5637
▁fumbled	-5638
▁gabbled	-5639
▁gardens	-5640
▁gesture	-5641
▁glanced	-5642
▁gravest	-5643
▁greater	-5644
▁greyish	-5645
▁groaned	-5646
▁guessed	-5647
▁handful	-5648
▁handing	-5649
▁harshly	-5650
▁hastily	-5651
▁heavens	-5652
▁helping	-5653
▁holding	-5654
▁holiday	-5655
▁honours	-5656
▁horizon	-5657
▁hunting	-5658
▁hushing	-5659
▁idiotic	-5660
▁illness	-5661
▁immense	-5662
▁inkling	-5663
▁inquire	-5664
▁instead	-5665
▁islands	-5666
▁jeering	-5667
▁jeweler	-5668
▁jumping	-5669
▁justify	-5670
▁kissing	-5671
▁knotted	-5672
▁landing	-5673
▁languid	-5674
▁leaping	-5675
▁leaving	-5676
▁letting	-5677
▁lifting	-5678
▁longing	-5679
▁luggage	-5680
▁lurched	-5681
▁madness	-5682
▁mankind	-5683
▁matured	-5684
▁measure	-5685
▁melteth	-5686
▁minutes	-5687
▁missing	-5688
▁moments	-5689
▁monster	-5690
▁mounted	-5691
▁natural	-5692
▁notches	-5693
▁observe	-5694
▁offence	-5695
▁offered	-5696
▁oppress	-5697
▁ordered	-5698
▁outrage	-5699
▁painful	-5700
▁pancake	-5701
▁panting	-5702
▁parasol	-5703
▁parched	-5704
▁passing	-5705
▁patient	-5706
▁pattern	-5707
▁payment	-5708
▁peeling	-5709
▁peering	-5710
▁pelisse	-5711
▁phrases	-5712
▁pickers	-5713
▁picking	-5714
▁pinched	-5715
▁plaster	-5716
▁plunged	-5717
▁porters	-5718
▁postman	-5719
▁prevent	-5720
▁private	-5721
▁project	-5722
▁pudding	-5723
▁quarrel	-5724
▁quarter	-5725
▁quietly	-5726
▁railway	-5727
▁raisins	-5728
▁readily	-5729
▁reddish	-5730
▁refrain	-5731
▁regular	-5732
▁related	-5733
▁reputed	-5734
▁reserve	-5735
▁restful	-5736
▁rickety	-5737
▁riotous	-5738
▁riveted	-5739
▁rubbish	-5740
▁ruffled	-5741
▁ruining	-5742
▁rupture	-5743
▁sacking	-5744
▁savings	-5745
▁scanned	-5746
▁science	-5747
▁scowled	-5748
▁seeking	-5749
▁seizing	-5750
▁sending	-5751
▁seventy	-5752
▁sharply	-5753
▁shocked	-5754
▁shopmen	-5755
▁shortly	-5756
▁showing	-5757
▁shrieks	-5758
▁shudder	-5759
▁sighing	-5760
▁sinking	-5761
▁sipping	-5762
▁slander	-5763
▁sloping	-5764
▁slyness	-5765
▁smaller	-5766
▁smartly	-5767
▁smiling	-5768
▁sobbing	-5769
▁somehow	-5770
▁sorcery	-5771
▁soundly	-5772
▁sparing	-5773
▁stabbed	-5774
▁stained	-5775
▁staring	-5776
▁station	-5777
▁stifled	-5778
▁stooped	-5779
▁stoutly	-5780
▁strayed	-5781
▁subside	-5782
▁tailors	-5783
▁terrors	-5784
▁threats	-5785
▁trading	-5786
▁tremble	-5787
▁triumph	-5788
▁tugging	-5789
▁turmoil	-5790
▁turning	-5791
▁uncerem	-5792
▁usually	-5793
▁uttered	-5794
▁verging	-5795
▁visible	-5796
▁vividly	-5797
▁wagging	-5798
▁wanting	-5799
▁warning	-5800
▁washing	-5801
▁wasting	-5802
▁watched	-5803
▁weeping	-5804
▁weighed	-5805
▁welcome	-5806
▁whipped	-5807
▁widower	-5808
▁winding	-5809
▁woollen	-5810
▁worried	-5811
▁wrapped	-5812
PULCHERIA	-5813
Praskovya	-5814
cessarily	-5815
cumentary	-5816
escending	-5817
gratulate	-5818
identally	-5819
inguished	-5820
nificance	-5821
pretation	-5822
rehearsal	-5823
resenting	-5824
stretched	-5825
▁American	-5826
▁Crossing	-5827
▁Egyptian	-5828
▁Golgotha	-5829
▁Ivanitch	-5830
▁Pavlovna	-5831
▁Possibly	-5832
▁Prospect	-5833
▁Redeemer	-5834
▁Remember	-5835
▁Splendid	-5836
▁Turgenev	-5837
▁Wringing	-5838
▁acquired	-5839
▁activity	-5840
▁actually	-5841
▁admiring	-5842
▁admitted	-5843
▁agitated	-5844
▁anywhere	-5845
▁apparent	-5846
▁appetite	-5847
▁arrivals	-5848
▁ascribed	-5849
▁assented	-5850
▁asserted	-5851
▁attained	-5852
▁attended	-5853
▁bankrupt	-5854
▁barriers	-5855
▁basement	-5856
▁baseness	-5857
▁behavior	-5858
▁believed	-5859
▁believes	-5860
▁besought	-5861
▁bitterly	-5862
▁bleeding	-5863
▁borrowed	-5864
▁bounding	-5865
▁bragging	-5866
▁breaking	-5867
▁breathed	-5868
▁brimless	-5869
▁brooding	-5870
▁buttoned	-5871
▁cashmere	-5872
▁casually	-5873
▁casuists	-5874
▁catching	-5875
▁cautious	-5876
▁ceremony	-5877
▁chatting	-5878
▁cheapest	-5879
▁cheerful	-5880
▁cleaning	-5881
▁clearing	-5882
▁clenched	-5883
▁clutched	-5884
▁comforts	-5885
▁confined	-5886
▁converse	-5887
▁conveyed	-5888
▁costumes	-5889
▁counting	-5890
▁cowardly	-5891
▁crawling	-5892
▁criminal	-5893
▁crowding	-5894
▁crumpled	-5895
▁cucumber	-5896
▁curtains	-5897
▁daylight	-5898
▁deducted	-5899
▁degraded	-5900
▁depended	-5901
▁deranged	-5902
▁develops	-5903
▁disgrace	-5904
▁disliked	-5905
▁distrust	-5906
▁diverted	-5907
▁drawling	-5908
▁dreaming	-5909
▁drinkers	-5910
▁dropping	-5911
▁drunkard	-5912
▁eighteen	-5913
▁embraced	-5914
▁employed	-5915
▁engraved	-5916
▁entering	-5917
▁exchange	-5918
▁expostul	-5919
▁exterior	-5920
▁extracts	-5921
▁extraord	-5922
▁extremes	-5923
▁families	-5924
▁firmness	-5925
▁flapping	-5926
▁fleeting	-5927
▁fluently	-5928
▁formerly	-5929
▁fortunes	-5930
▁frenzied	-5931
▁fretting	-5932
▁friendly	-5933
▁fumbling	-5934
▁furthest	-5935
▁gathered	-5936
▁gigantic	-5937
▁glassful	-5938
▁governor	-5939
▁graceful	-5940
▁greatest	-5941
▁greedily	-5942
▁greenish	-5943
▁grinding	-5944
▁guessing	-5945
▁guffawed	-5946
▁habitual	-5947
▁handsome	-5948
▁happiest	-5949
▁haunches	-5950
▁heavenly	-5951
▁helpless	-5952
▁hopeless	-5953
▁horribly	-5954
▁humility	-5955
▁ignominy	-5956
▁improved	-5957
▁indebted	-5958
▁infamous	-5959
▁infantry	-5960
▁inferior	-5961
▁innocent	-5962
▁invented	-5963
▁investig	-5964
▁isolated	-5965
▁jingling	-5966
▁jostling	-5967
▁knitting	-5968
▁landlord	-5969
▁lighting	-5970
▁littered	-5971
▁loathing	-5972
▁luckless	-5973
▁luxuries	-5974
▁maintain	-5975
▁manifest	-5976
▁marrying	-5977
▁material	-5978
▁maturity	-5979
▁meanness	-5980
▁measured	-5981
▁meetings	-5982
▁menacing	-5983
▁merchant	-5984
▁mountain	-5985
▁murdered	-5986
▁murmured	-5987
▁nineteen	-5988
▁noblemen	-5989
▁observed	-5990
▁observes	-5991
▁offering	-5992
▁official	-5993
▁opponent	-5994
▁ordering	-5995
▁ordinary	-5996
▁outbreak	-5997
▁outgrown	-5998
▁overcoat	-5999
▁overlook	-6000
▁overtook	-6001
▁passport	-6002
▁penitent	-6003
▁persuade	-6004
▁petition	-6005
▁pleasant	-6006
▁poignant	-6007
▁polished	-6008
▁politely	-6009
▁powerful	-6010
▁presence	-6011
▁pressing	-6012
▁previous	-6013
▁probable	-6014
▁progress	-6015
▁proposal	-6016
▁province	-6017
▁prudence	-6018
▁pursuing	-6019
▁radiance	-6020
▁relation	-6021
▁relieves	-6022
▁remained	-6023
▁renounce	-6024
▁repaying	-6025
▁repented	-6026
▁replying	-6027
▁resolute	-6028
▁responsi	-6029
▁restless	-6030
▁reviling	-6031
▁romantic	-6032
▁scornful	-6033
▁scowling	-6034
▁seconded	-6035
▁services	-6036
▁shedding	-6037
▁shortest	-6038
▁showered	-6039
▁sideways	-6040
▁singular	-6041
▁slanting	-6042
▁slipping	-6043
▁smearing	-6044
▁smelling	-6045
▁sneering	-6046
▁somebody	-6047
▁speeches	-6048
▁spirited	-6049
▁spiteful	-6050
▁spitting	-6051
▁stamping	-6052
▁starched	-6053
▁starving	-6054
▁sticking	-6055
▁stinking	-6056
▁stolidly	-6057
▁stopping	-6058
▁stronger	-6059
▁strongly	-6060
▁studying	-6061
▁stunning	-6062
▁subjects	-6063
▁sullenly	-6064
▁sweeping	-6065
▁sympathy	-6066
▁thinness	-6067
▁thousand	-6068
▁tortoise	-6069
▁treating	-6070
▁uneasily	-6071
▁unshaven	-6072
▁unsolved	-6073
▁valuable	-6074
▁vanished	-6075
▁ventured	-6076
▁wandered	-6077
▁whenever	-6078
▁whirling	-6079
▁whiskers	-6080
▁whispers	-6081
▁withered	-6082
▁wondered	-6083
▁wrathful	-6084
▁wretches	-6085
▁youngest	-6086
Hopelessly	-6087
idiousness	-6088
illeresque	-6089
percentage	-6090
stitiously	-6091
▁Boulevard	-6092
▁Certainly	-6093
▁Evidently	-6094
▁Forasmuch	-6095
▁Klopstock	-6096
▁Petrovsky	-6097
▁Romanovna	-6098
▁Schleswig	-6099
▁Something	-6100
▁Sometimes	-6101
▁Yesterday	-6102
▁Zimmerman	-6103
▁according	-6104
▁actuality	-6105
▁advantage	-6106
▁adventure	-6107
▁aggrieved	-6108
▁agreeable	-6109
▁announced	-6110
▁anxieties	-6111
▁apologise	-6112
▁assembled	-6113
▁associate	-6114
▁atrocious	-6115
▁attacking	-6116
▁attending	-6117
▁attracted	-6118
▁authentic	-6119
▁balalaïka	-6120
▁balconies	-6121
▁beautiful	-6122
▁beginning	-6123
▁believing	-6124
▁blankness	-6125
▁bloodshot	-6126
▁butchered	-6127
▁carriages	-6128
▁clambered	-6129
▁clenching	-6130
▁closeness	-6131
▁completed	-6132
▁composure	-6133
▁conceived	-6134
▁concluded	-6135
▁concubine	-6136
▁condemned	-6137
▁confessed	-6138
▁conscient	-6139
▁consisted	-6140
▁cowardice	-6141
▁cupboards	-6142
▁curiosity	-6143
▁customers	-6144
▁dangerous	-6145
▁declaimed	-6146
▁degrading	-6147
▁dishonour	-6148
▁dismissed	-6149
▁distantly	-6150
▁distorted	-6151
▁earnestly	-6152
▁emaciated	-6153
▁essential	-6154
▁estimable	-6155
▁everybody	-6156
▁exactness	-6157
▁exchanged	-6158
▁excusable	-6159
▁exemplary	-6160
▁expecting	-6161
▁extremity	-6162
▁fervently	-6163
▁festivity	-6164
▁following	-6165
▁forasmuch	-6166
▁forbidden	-6167
▁foretaste	-6168
▁fortitude	-6169
▁fortnight	-6170
▁freshness	-6171
▁frightens	-6172
▁furiously	-6173
▁galloping	-6174
▁gentility	-6175
▁gentlemen	-6176
▁geography	-6177
▁geraniums	-6178
▁glittered	-6179
▁gossiping	-6180
▁gradually	-6181
▁greenness	-6182
▁grotesque	-6183
▁halfpenny	-6184
▁hammering	-6185
▁headdress	-6186
▁hopefully	-6187
▁horrified	-6188
▁horseback	-6189
▁hostility	-6190
▁household	-6191
▁humiliate	-6192
▁hundredth	-6193
▁immovable	-6194
▁imploring	-6195
▁impotence	-6196
▁impressed	-6197
▁inaudibly	-6198
▁incapable	-6199
▁including	-6200
▁increased	-6201
▁indelible	-6202
▁inhabited	-6203
▁inquiries	-6204
▁inquiring	-6205
▁instantly	-6206
▁intending	-6207
▁intensity	-6208
▁interests	-6209
▁interfere	-6210
▁knowledge	-6211
▁lingering	-6212
▁listeners	-6213
▁luxurious	-6214
▁marriages	-6215
▁meanwhile	-6216
▁mentioned	-6217
▁merchants	-6218
▁momentary	-6219
▁monstrous	-6220
▁monuments	-6221
▁mortified	-6222
▁moustache	-6223
▁muttering	-6224
▁necessary	-6225
▁necessity	-6226
▁oblivious	-6227
▁observing	-6228
▁obsession	-6229
▁occasions	-6230
▁outspoken	-6231
▁overheard	-6232
▁overtaken	-6233
▁overtakes	-6234
▁painfully	-6235
▁passively	-6236
▁performed	-6237
▁persisted	-6238
▁persuaded	-6239
▁pestering	-6240
▁pondering	-6241
▁precisely	-6242
▁prejudice	-6243
▁preparing	-6244
▁prevented	-6245
▁promising	-6246
▁protruded	-6247
▁provinces	-6248
▁proximity	-6249
▁readiness	-6250
▁reasoning	-6251
▁receiving	-6252
▁recounted	-6253
▁recurring	-6254
▁refreshed	-6255
▁relapsing	-6256
▁reminding	-6257
▁reputable	-6258
▁resources	-6259
▁revellers	-6260
▁revolting	-6261
▁revulsion	-6262
▁scrubbing	-6263
▁secretary	-6264
▁sentences	-6265
▁separated	-6266
▁seriously	-6267
▁seventeen	-6268
▁shivering	-6269
▁shrinking	-6270
▁sickening	-6271
▁simpleton	-6272
▁smartened	-6273
▁soldierly	-6274
▁solemnity	-6275
▁spattered	-6276
▁spectator	-6277
▁statesman	-6278
▁straining	-6279
▁streaming	-6280
▁struggled	-6281
▁stumbling	-6282
▁stupidity	-6283
▁succeeded	-6284
▁suffering	-6285
▁tenements	-6286
▁tormented	-6287
▁torturing	-6288
▁unadorned	-6289
▁unalloyed	-6290
▁uncovered	-6291
▁undertake	-6292
▁undressed	-6293
▁unfolding	-6294
▁universal	-6295
▁unlocking	-6296
▁unpainted	-6297
▁untouched	-6298
▁unwelcome	-6299
▁unwilling	-6300
▁verandahs	-6301
▁violently	-6302
▁vividness	-6303
▁whistling	-6304
▁wondering	-6305
Raskolnikov	-6306
intentioned	-6307
▁Afterwards	-6308
▁Everything	-6309
▁Jesuitical	-6310
▁PUNISHMENT	-6311
▁Physiology	-6312
▁Semyonovna	-6313
▁accurately	-6314
▁admonishes	-6315
▁amusements	-6316
▁approached	-6317
▁arithmetic	-6318
▁articulate	-6319
▁artificial	-6320
▁assistance	-6321
▁atmosphere	-6322
▁attendance	-6323
▁attractive	-6324
▁attributed	-6325
▁bareheaded	-6326
▁beginnings	-6327
▁benefactor	-6328
▁blossoming	-6329
▁brandished	-6330
▁buttonhole	-6331
▁calculated	-6332
▁cigarettes	-6333
▁clamouring	-6334
▁colourless	-6335
▁commercial	-6336
▁complaints	-6337
▁conducting	-6338
▁confounded	-6339
▁consenting	-6340
▁consistent	-6341
▁consisting	-6342
▁constantly	-6343
▁controlled	-6344
▁convenient	-6345
▁conveyance	-6346
▁definitely	-6347
▁dejectedly	-6348
▁deliberate	-6349
▁describing	-6350
▁difference	-6351
▁diminutive	-6352
▁directions	-6353
▁discharged	-6354
▁disgusting	-6355
▁doubtfully	-6356
▁drowsiness	-6357
▁ejaculated	-6358
▁embroiders	-6359
▁employment	-6360
▁enthusiasm	-6361
▁entreating	-6362
▁everywhere	-6363
▁exhaustion	-6364
▁expressing	-6365
▁facilitate	-6366
▁faithfully	-6367
▁favourable	-6368
▁filthiness	-6369
▁flattering	-6370
▁flickering	-6371
▁foreboding	-6372
▁frequented	-6373
▁gatherings	-6374
▁generosity	-6375
▁gentlefolk	-6376
▁glittering	-6377
▁honourable	-6378
▁importance	-6379
▁impressive	-6380
▁indecision	-6381
▁infidelity	-6382
▁intentions	-6383
▁interfered	-6384
▁interviews	-6385
▁invariably	-6386
▁irrelevant	-6387
▁irritation	-6388
▁litigation	-6389
▁locksmiths	-6390
▁monologues	-6391
▁obediently	-6392
▁occurrence	-6393
▁particular	-6394
▁passionate	-6395
▁pawnbroker	-6396
▁personages	-6397
▁petticoats	-6398
▁plantation	-6399
▁population	-6400
▁precedence	-6401
▁pretending	-6402
▁pronounced	-6403
▁propensity	-6404
▁prosperous	-6405
▁quarrelled	-6406
▁recovering	-6407
▁regardless	-6408
▁regimental	-6409
▁regretting	-6410
▁remarkable	-6411
▁repeatedly	-6412
▁reproached	-6413
▁reverently	-6414
▁scantiness	-6415
▁scientific	-6416
▁sensations	-6417
▁separation	-6418
▁shabbiness	-6419
▁shuddering	-6420
▁smoldering	-6421
▁starvation	-6422
▁stinginess	-6423
▁submissive	-6424
▁supporting	-6425
▁suspicions	-6426
▁tambourine	-6427
▁thoroughly	-6428
▁threadbare	-6429
▁touchingly	-6430
▁travelling	-6431
▁undismayed	-6432
▁undressing	-6433
▁uneasiness	-6434
▁unfamiliar	-6435
▁unreserved	-6436
▁unsteadier	-6437
▁unsteadily	-6438
▁untenanted	-6439
▁uproarious	-6440
▁wanderings	-6441
▁wantonness	-6442
▁whimpering	-6443
establishing	-6444
▁Frantsovnas	-6445
▁Marmeladovs	-6446
▁RASKOLNIKOV	-6447
▁Romanovitch	-6448
▁accumulated	-6449
▁affectation	-6450
▁airlessness	-6451
▁astonishing	-6452
▁attentively	-6453
▁beastliness	-6454
▁bespattered	-6455
▁brandishing	-6456
▁candlestick	-6457
▁complaining	-6458
▁confronting	-6459
▁conjunction	-6460
▁considering	-6461
▁consolatory	-6462
▁conspicuous	-6463
▁consumption	-6464
▁contractors	-6465
▁courteously	-6466
▁defenceless	-6467
▁derangement	-6468
▁descriptive	-6469
▁destitution	-6470
▁development	-6471
▁differences	-6472
▁differently	-6473
▁disappeared	-6474
▁disapproval	-6475
▁distraction	-6476
▁documentary	-6477
▁drunkenness	-6478
▁enlightened	-6479
▁evasiveness	-6480
▁exceedingly	-6481
▁exceptional	-6482
▁excessively	-6483
▁experienced	-6484
▁fashionably	-6485
▁ferociously	-6486
▁frantically	-6487
▁humiliating	-6488
▁imagination	-6489
▁impatiently	-6490
▁independent	-6491
▁indications	-6492
▁indignation	-6493
▁inducements	-6494
▁information	-6495
▁inquiringly	-6496
▁insistently	-6497
▁institution	-6498
▁instruction	-6499
▁intelligent	-6500
▁interesting	-6501
▁interrupted	-6502
▁magnanimous	-6503
▁malignantly	-6504
▁manuscripts	-6505
▁meaningless	-6506
▁millionaire	-6507
▁monomaniacs	-6508
▁opportunity	-6509
▁parenthesis	-6510
▁partnership	-6511
▁practically	-6512
▁predestined	-6513
▁presentable	-6514
▁pretensions	-6515
▁prevaricate	-6516
▁probability	-6517
▁profoundest	-6518
▁religiously	-6519
▁resentfully	-6520
▁sacrificing	-6521
▁scaffolding	-6522
▁shortcoming	-6523
▁spluttering	-6524
▁superfluous	-6525
▁superiority	-6526
▁surrounding	-6527
▁sympathetic	-6528
▁tantalising	-6529
▁thunderclap	-6530
▁townspeople	-6531
▁transformed	-6532
▁tremulously	-6533
▁unconscious	-6534
▁understands	-6535
▁unfortunate	-6536
▁unnecessary	-6537
▁unpractised	-6538
▁Kapernaumovs	-6539
▁accidentally	-6540
▁anticipating	-6541
▁arrangements	-6542
▁artistically	-6543
▁congratulate	-6544
▁contemplated	-6545
▁disconcerted	-6546
▁expectations	-6547
▁explanations	-6548
▁hypochondria	-6549
▁indecorously	-6550
▁insufferable	-6551
▁insufferably	-6552
▁intelligence	-6553
▁irritability	-6554
▁neighbouring	-6555
▁observations	-6556
▁occasionally	-6557
▁outstretched	-6558
▁persistently	-6559
▁perspiration	-6560
▁presentiment	-6561
▁professional	-6562
▁providential	-6563
▁recklessness	-6564
▁relationship	-6565
▁representing	-6566
▁scandalising	-6567
▁significance	-6568
▁submissively	-6569
▁successfully	-6570
▁unfavourable	-6571
▁wineglassful	-6572
▁Schilleresque	-6573
▁communication	-6574
▁communicative	-6575
▁condescending	-6576
▁conversations	-6577
▁costermongers	-6578
▁determination	-6579
▁disrespectful	-6580
▁distinguished	-6581
▁establishment	-6582
▁expostulating	-6583
▁extraordinary	-6584
▁grandiloquent	-6585
▁handkerchiefs	-6586
▁indifferently	-6587
▁inquisitively	-6588
▁involuntarily	-6589
▁neighbourhood	-6590
▁preponderance	-6591
▁spontaneously	-6592
▁unceremonious	-6593
▁unconsciously	-6594
▁unnecessarily	-6595
▁fastidiousness	-6596
▁interpretation	-6597
▁investigations	-6598
▁manifestations	-6599
▁respectability	-6600
▁responsibility	-6601
▁conscientiously	-6602
▁straightforward	-6603
▁superstitiously	-6604
Al	-6605
An	-6606
Ar	-6607
At	-6608
Bo	-6609
Bu	-6610
Ca	-6611
Ce	-6612
Ch	-6613
Co	-6614
Cr	-6615
Da	-6616
EN	-6617
Ev	-6618
Ex	-6619
Fa	-6620
Fe	-6621
Fo	-6622
Fr	-6623
Fu	-6624
Fy	-6625
Ge	-6626
Gr	-6627
HA	-6628
HM	-6629
Ha	-6630
Hi	-6631
Ho	-6632
IV	-6633
In	-6634
Is	-6635
Iv	-6636
Ka	-6637
Ke	-6638
LC	-6639
La	-6640
Le	-6641
Li	-6642
Lo	-6643
Lu	-6644
Ma	-6645
Mi	-6646
Mo	-6647
Mr	-6648
Na	-6649
Ne	-6650
On	-6651
Os	-6652
Ou	-6653
Ow	-6654
PA	-6655
PT	-6656
Pa	-6657
Pe	-6658
Ph	-6659
Pl	-6660
Pu	-6661
Py	-6662
Ra	-6663
Ro	-6664
Se	-6665
Sh	-6666
Si	-6667
Su	-6668
Sv	-6669
TE	-6670
Ta	-6671
Tr	-6672
Tw	-6673
UN	-6674
Va	-6675
We	-6676
Wh	-6677
Wi	-6678
Yo	-6679
Za	-6680
ab	-6681
ai	-6682
aj	-6683
ba	-6684
bi	-6685
bj	-6686
bv	-6687
cq	-6688
cr	-6689
da	-6690
db	-6691
de	-6692
dg	-6693
dl	-6694
dm	-6695
dn	-6696
dr	-6697
dt	-6698
du	-6699
;-	-6700
AN	-6701
Ab	-6702
Ac	-6703
Av	-6704
Ba	-6705
Bi	-6706
CR	-6707
Cy	-6708
Di	-6709
Dr	-6710
Gi	-6711
IM	-6712
Ju	-6713
OL	-6714
ax	-6715
dk	-6716
dv	-6717
dy	-6718
ea	-6719
eb	-6720
ec	-6721
eg	-6722
eh	-6723
ei	-6724
eo	-6725
eq	-6726
eu	-6727
ez	-6728
fi	-6729
fo	-6730
fs	-6731
fu	-6732
fy	-6733
ga	-6734
gd	-6735
gg	-6736
gi	-6737
go	-6738
gs	-6739
gt	-6740
gu	-6741
hh	-6742
hk	-6743
hm	-6744
hs	-6745
ht	-6746
hu	-6747
ib	-6748
ih	-6749
io	-6750
ja	-6751
je	-6752
ji	-6753
jo	-6754
ju	-6755
ki	-6756
kl	-6757
kn	-6758
ko	-6759
kr	-6760
ku	-6761
lb	-6762
lk	-6763
lm	-6764
ln	-6765
lr	-6766
ls	-6767
lu	-6768
lv	-6769
lw	-6770
ma	-6771
mb	-6772
mf	-6773
mi	-6774
ml	-6775
mo	-6776
mp	-6777
mr	-6778
mt	-6779
mu	-6780
nc	-6781
nf	-6782
nh	-6783
nj	-6784
nk	-6785
nl	-6786
nm	-6787
nn	-6788
np	-6789
nq	-6790
ns	-6791
nu	-6792
nv	-6793
nx	-6794
oa	-6795
ob	-6796
oc	-6797
oi	-6798
ok	-6799
-.	-6800
-“	-6801
.?	-6802
Eg	-6803
En	-6804
Fi	-6805
Hu	-6806
II	-6807
IK	-6808
IS	-6809
Im	-6810
Ja	-6811
Je	-6812
Kl	-6813
Kn	-6814
Ko	-6815
LN	-6816
OV	-6817
Po	-6818
RA	-6819
RT	-6820
Re	-6821
SK	-6822
Sc	-6823
Sp	-6824
Te	-6825
Ti	-6826
Tu	-6827
Ug	-6828
Wa	-6829
hl	-6830
lg	-6831
ox	-6832
pa	-6833
pb	-6834
ph	-6835
pi	-6836
pk	-6837
pm	-6838
pu	-6839
py	-6840
rb	-6841
rc	-6842
rd	-6843
rf	-6844
rg	-6845
rh	-6846
rk	-6847
rl	-6848
rm	-6849
rn	-6850
rp	-6851
rr	-6852
rs	-6853
rt	-6854
rv	-6855
rw	-6856
sa	-6857
sb	-6858
sc	-6859
sf	-6860
sg	-6861
si	-6862
sl	-6863
sm	-6864
sn	-6865
sq	-6866
sr	-6867
su	-6868
tb	-6869
tf	-6870
ti	-6871
tl	-6872
tm	-6873
tn	-6874
tr	-6875
tt	-6876
tu	-6877
tv	-6878
tw	-6879
tz	-6880
ua	-6881
uf	-6882
ui	-6883
uo	-6884
uy	-6885
va	-6886
vi	-6887
vl	-6888
vn	-6889
vs	-6890
vy	-6891
wa	-6892
wb	-6893
wd	-6894
wf	-6895
wh	-6896
wi	-6897
ws	-6898
xa	-6899
!-	-6900
!.	-6901
?-	-6902
Me	-6903
Wo	-6904
Wr	-6905
Ze	-6906
Zi	-6907
_)	-6908
ao	-6909
cs	-6910
df	-6911
dh	-6912
dw	-6913
ej	-6914
fp	-6915
hb	-6916
hf	-6917
hn	-6918
iu	-6919
lc	-6920
nb	-6921
nw	-6922
nz	-6923
oj	-6924
oq	-6925
tg	-6926
vu	-6927
xe	-6928
xh	-6929
xi	-6930
xp	-6931
xu	-6932
yb	-6933
ye	-6934
yf	-6935
yi	-6936
yl	-6937
ym	-6938
yn	-6939
yo	-6940
yp	-6941
yr	-6942
ys	-6943
yt	-6944
yv	-6945
yw	-6946
za	-6947
ze	-6948
zh	-6949
zl	-6950
zo	-6951
zu	-6952
ïk	-6953
ïl	-6954
ïv	-6955
‘_	-6956
’-	-6957
”-	-6958
▁.	-6959
▁Q	-6960
▁i	-6961
▁q	-6962
Are	-6963
Bes	-6964
Bou	-6965
Can	-6966
Cre	-6967
Dou	-6968
Fat	-6969
Fin	-6970
Foo	-6971
Fre	-6972
Ger	-6973
God	-6974
Has	-6975
Ind	-6976
Jes	-6977
Kat	-6978
Lat	-6979
Les	-6980
Man	-6981
Nor	-6982
Not	-6983
Now	-6984
Pro	-6985
Rat	-6986
SKO	-6987
Sem	-6988
Wit	-6989
Yet	-6990
abe	-6991
ait	-6992
ala	-6993
ale	-6994
alt	-6995
ami	-6996
amt	-6997
anl	-6998
ara	-6999
,.	-7000
?.	-7001
Ga	-7002
HE	-7003
UL	-7004
bm	-7005
nr	-7006
wu	-7007
“.	-7008
IME	-7009
Phe	-7010
Vas	-7011
Whe	-7012
Wou	-7013
_..	-7014
ali	-7015
arc	-7016
ari	-7017
asn	-7018
aso	-7019
atc	-7020
att	-7021
aus	-7022
avy	-7023
bbl	-7024
bra	-7025
cal	-7026
cea	-7027
cer	-7028
cin	-7029
cit	-7030
cky	-7031
cou	-7032
cre	-7033
cts	-7034
cur	-7035
cus	-7036
cut	-7037
der	-7038
dic	-7039
dif	-7040
dig	-7041
din	-7042
dis	-7043
dit	-7044
ean	-7045
eas	-7046
ece	-7047
ede	-7048
edo	-7049
edu	-7050
eel	-7051
ehe	-7052
eit	-7053
ena	-7054
enl	-7055
eon	-7056
eou	-7057
era	-7058
erc	-7059
erg	-7060
erk	-7061
ese	-7062
esh	-7063
eta	-7064
eti	-7065
fel	-7066
fer	-7067
fin	-7068
fle	-7069
foo	-7070
gan	-7071
gas	-7072
get	-7073
ghb	-7074
ghe	-7075
gin	-7076
gis	-7077
gly	-7078
gno	-7079
gra	-7080
gre	-7081
had	-7082
ham	-7083
hav	-7084
hea	-7085
hec	-7086
hee	-7087
hei	-7088
hel	-7089
hem	-7090
heo	-7091
het	-7092
hey	-7093
hir	-7094
hit	-7095
hom	-7096
hon	-7097
hre	-7098
ido	-7099
Bed	-7100
Cou	-7101
Mot	-7102
Rou	-7103
Sin	-7104
alk	-7105
bin	-7106
bou	-7107
bre	-7108
cti	-7109
dge	-7110
dou	-7111
dre	-7112
enc	-7113
erw	-7114
fou	-7115
him	-7116
hou	-7117
ien	-7118
ilw	-7119
ima	-7120
imb	-7121
iml	-7122
inc	-7123
inf	-7124
inh	-7125
ini	-7126
inl	-7127
inn	-7128
inq	-7129
inv	-7130
iou	-7131
isc	-7132
iso	-7133
ita	-7134
iti	-7135
itu	-7136
jin	-7137
jou	-7138
joy	-7139
kar	-7140
key	-7141
kis	-7142
kly	-7143
kon	-7144
kst	-7145
lat	-7146
lde	-7147
lec	-7148
lem	-7149
lep	-7150
lie	-7151
lln	-7152
llo	-7153
lni	-7154
lou	-7155
lre	-7156
lut	-7157
min	-7158
mis	-7159
mit	-7160
mle	-7161
mor	-7162
mou	-7163
mus	-7164
nag	-7165
nam	-7166
nar	-7167
nce	-7168
nda	-7169
nde	-7170
ndf	-7171
ndi	-7172
ndk	-7173
ndl	-7174
ndm	-7175
ndo	-7176
ndr	-7177
nds	-7178
ndu	-7179
ndw	-7180
ndy	-7181
nee	-7182
nin	-7183
nke	-7184
nre	-7185
nts	-7186
nut	-7187
oad	-7188
oar	-7189
oat	-7190
oin	-7191
oli	-7192
olu	-7193
omf	-7194
onh	-7195
oni	-7196
onj	-7197
onn	-7198
ono	-7199
Bit	-7200
Bot	-7201
ERI	-7202
Her	-7203
Rom	-7204
bil	-7205
cas	-7206
chi	-7207
cro	-7208
erd	-7209
erh	-7210
evs	-7211
fre	-7212
git	-7213
hoo	-7214
hur	-7215
ico	-7216
ito	-7217
kit	-7218
ler	-7219
lis	-7220
lit	-7221
mat	-7222
nit	-7223
nto	-7224
nty	-7225
onu	-7226
ony	-7227
oom	-7228
ora	-7229
orb	-7230
orc	-7231
org	-7232
ori	-7233
orl	-7234
ots	-7235
oub	-7236
ouc	-7237
oug	-7238
oul	-7239
owb	-7240
pan	-7241
pas	-7242
pec	-7243
pee	-7244
pen	-7245
phe	-7246
pin	-7247
pon	-7248
pou	-7249
ppo	-7250
ppr	-7251
pre	-7252
pse	-7253
pst	-7254
pts	-7255
qui	-7256
raf	-7257
rai	-7258
ran	-7259
raz	-7260
rea	-7261
reb	-7262
rec	-7263
ref	-7264
reg	-7265
reh	-7266
rej	-7267
reo	-7268
rep	-7269
req	-7270
rer	-7271
rev	-7272
rey	-7273
rhe	-7274
rim	-7275
rin	-7276
rio	-7277
rip	-7278
riu	-7279
rly	-7280
rne	-7281
roc	-7282
roj	-7283
rop	-7284
rou	-7285
rre	-7286
rri	-7287
rub	-7288
sar	-7289
sha	-7290
sin	-7291
son	-7292
sou	-7293
squ	-7294
sre	-7295
sse	-7296
sta	-7297
sum	-7298
sur	-7299
Cat	-7300
Cer	-7301
IKO	-7302
Lon	-7303
Mat	-7304
Per	-7305
aft	-7306
ano	-7307
atl	-7308
atn	-7309
ato	-7310
atu	-7311
atv	-7312
aym	-7313
cat	-7314
cif	-7315
del	-7316
eat	-7317
epp	-7318
erf	-7319
erl	-7320
erp	-7321
esm	-7322
esq	-7323
fat	-7324
gat	-7325
gen	-7326
iat	-7327
iec	-7328
kat	-7329
kep	-7330
lam	-7331
las	-7332
lea	-7333
nel	-7334
omp	-7335
onf	-7336
owr	-7337
ply	-7338
ppe	-7339
rat	-7340
sat	-7341
ser	-7342
sly	-7343
stu	-7344
tat	-7345
tay	-7346
tim	-7347
tin	-7348
tit	-7349
tle	-7350
tom	-7351
tou	-7352
tre	-7353
tri	-7354
tst	-7355
tte	-7356
tur	-7357
uad	-7358
uar	-7359
uat	-7360
udy	-7361
uen	-7362
uff	-7363
uin	-7364
uit	-7365
unc	-7366
und	-7367
uni	-7368
unn	-7369
uou	-7370
uss	-7371
uta	-7372
utc	-7373
uti	-7374
utm	-7375
utt	-7376
uty	-7377
vad	-7378
var	-7379
vem	-7380
vet	-7381
vie	-7382
vin	-7383
vit	-7384
vot	-7385
vou	-7386
wen	-7387
wer	-7388
whe	-7389
wig	-7390
win	-7391
wit	-7392
wor	-7393
wou	-7394
wry	-7395
xch	-7396
xer	-7397
xes	-7398
xit	-7399
..’	-7400
For	-7401
Fur	-7402
Pus	-7403
Red	-7404
ais	-7405
car	-7406
cen	-7407
cid	-7408
cis	-7409
ded	-7410
dly	-7411
eda	-7412
edg	-7413
edr	-7414
etc	-7415
his	-7416
isi	-7417
orm	-7418
pol	-7419
pot	-7420
raw	-7421
ris	-7422
sed	-7423
sle	-7424
tun	-7425
ued	-7426
utu	-7427
vec	-7428
vis	-7429
wed	-7430
yan	-7431
yed	-7432
yer	-7433
yin	-7434
yis	-7435
ypt	-7436
yst	-7437
zed	-7438
zin	-7439
zon	-7440
▁Ab	-7441
▁CR	-7442
▁Dr	-7443
▁Pa	-7444
▁Ph	-7445
▁Py	-7446
▁Ro	-7447
▁Sv	-7448
▁Ti	-7449
▁Tr	-7450
▁Tu	-7451
▁ai	-7452
▁aj	-7453
▁ak	-7454
▁au	-7455
▁av	-7456
▁bi	-7457
▁eb	-7458
▁ec	-7459
▁ei	-7460
▁eq	-7461
▁er	-7462
▁fi	-7463
▁fu	-7464
▁hi	-7465
▁mi	-7466
▁mo	-7467
▁mu	-7468
▁oa	-7469
▁oc	-7470
▁od	-7471
▁oi	-7472
▁ol	-7473
▁ot	-7474
▁ou	-7475
▁ov	-7476
▁ow	-7477
▁ph	-7478
▁pi	-7479
▁pu	-7480
▁si	-7481
▁ti	-7482
▁tu	-7483
▁ya	-7484
...?	-7485
Beho	-7486
Gall	-7487
List	-7488
Nast	-7489
Near	-7490
With	-7491
Your	-7492
ainf	-7493
alal	-7494
amin	-7495
amle	-7496
amou	-7497
amse	-7498
anat	-7499
Hen	-7500
Kno	-7501
Lis	-7502
Mis	-7503
Nas	-7504
Ras	-7505
Sen	-7506
arr	-7507
asa	-7508
ask	-7509
asu	-7510
bis	-7511
bst	-7512
cel	-7513
den	-7514
ees	-7515
eni	-7516
enj	-7517
enn	-7518
eny	-7519
fan	-7520
fen	-7521
hid	-7522
ias	-7523
isa	-7524
isg	-7525
isl	-7526
len	-7527
lla	-7528
mir	-7529
nen	-7530
nik	-7531
nis	-7532
nno	-7533
ois	-7534
rid	-7535
roa	-7536
sen	-7537
sis	-7538
tas	-7539
tis	-7540
uis	-7541
wly	-7542
zen	-7543
▁Ka	-7544
agni	-7545
ancy	-7546
andi	-7547
angu	-7548
anis	-7549
anit	-7550
antr	-7551
arce	-7552
ardi	-7553
aref	-7554
aren	-7555
aric	-7556
arit	-7557
arri	-7558
arti	-7559
artl	-7560
asan	-7561
asem	-7562
asen	-7563
asin	-7564
asps	-7565
astl	-7566
athe	-7567
atin	-7568
atre	-7569
atte	-7570
atur	-7571
aust	-7572
aver	-7573
ayer	-7574
azum	-7575
blig	-7576
bliv	-7577
ceed	-7578
cere	-7579
choo	-7580
chus	-7581
cing	-7582
cken	-7583
ckon	-7584
ckst	-7585
coll	-7586
cove	-7587
cted	-7588
cust	-7589
ddis	-7590
ddle	-7591
dent	-7592
ders	-7593
ding	-7594
dore	-7595
east	-7596
edal	-7597
eded	-7598
eden	-7599
Hon	-7600
Sim	-7601
Som	-7602
Son	-7603
Was	-7604
anu	-7605
anv	-7606
any	-7607
asi	-7608
asp	-7609
eme	-7610
fas	-7611
gun	-7612
hor	-7613
lid	-7614
lig	-7615
lle	-7616
lli	-7617
lls	-7618
lly	-7619
lon	-7620
lus	-7621
non	-7622
oll	-7623
onc	-7624
onv	-7625
oon	-7626
rar	-7627
ras	-7628
ray	-7629
tan	-7630
vex	-7631
yon	-7632
▁..	-7633
▁da	-7634
▁du	-7635
▁dy	-7636
▁lu	-7637
Ever	-7638
aise	-7639
anov	-7640
aras	-7641
aser	-7642
ashe	-7643
ason	-7644
assa	-7645
ciat	-7646
ckly	-7647
eing	-7648
elad	-7649
elic	-7650
emem	-7651
enat	-7652
enes	-7653
enis	-7654
enit	-7655
enou	-7656
ensi	-7657
enta	-7658
ente	-7659
enti	-7660
entr	-7661
entu	-7662
eous	-7663
eper	-7664
eral	-7665
erat	-7666
erhe	-7667
eric	-7668
erin	-7669
erit	-7670
erly	-7671
erou	-7672
ersb	-7673
erse	-7674
esid	-7675
esig	-7676
eter	-7677
ethe	-7678
etit	-7679
etly	-7680
feri	-7681
fess	-7682
gage	-7683
gant	-7684
gard	-7685
gent	-7686
gers	-7687
gged	-7688
ghte	-7689
ghts	-7690
gise	-7691
gret	-7692
gust	-7693
hast	-7694
hear	-7695
heat	-7696
hedr	-7697
heer	-7698
heet	-7699
Lor	-7700
Wor	-7701
ana	-7702
ani	-7703
anw	-7704
aor	-7705
arf	-7706
arl	-7707
cor	-7708
dor	-7709
esc	-7710
fly	-7711
han	-7712
idg	-7713
lan	-7714
lar	-7715
lse	-7716
mar	-7717
nor	-7718
oan	-7719
oot	-7720
oro	-7721
orr	-7722
orw	-7723
pel	-7724
por	-7725
sor	-7726
tor	-7727
wan	-7728
war	-7729
zan	-7730
▁ly	-7731
anas	-7732
ayth	-7733
bine	-7734
cake	-7735
cite	-7736
enan	-7737
entf	-7738
essi	-7739
give	-7740
hell	-7741
hers	-7742
iday	-7743
idri	-7744
ifes	-7745
ifle	-7746
ifth	-7747
igen	-7748
ihin	-7749
ille	-7750
ilor	-7751
ilth	-7752
imed	-7753
imen	-7754
imit	-7755
imou	-7756
impl	-7757
impr	-7758
inar	-7759
inat	-7760
inct	-7761
inen	-7762
ines	-7763
ingd	-7764
ingl	-7765
inin	-7766
inis	-7767
init	-7768
iour	-7769
irly	-7770
irth	-7771
iser	-7772
ishe	-7773
isin	-7774
isor	-7775
isre	-7776
istc	-7777
istr	-7778
itat	-7779
iten	-7780
ites	-7781
ithe	-7782
itin	-7783
itor	-7784
ivet	-7785
jing	-7786
jour	-7787
keen	-7788
kely	-7789
lant	-7790
leas	-7791
lect	-7792
leet	-7793
left	-7794
lief	-7795
litt	-7796
llar	-7797
ller	-7798
lles	-7799
Ano	-7800
Com	-7801
Dar	-7802
Lad	-7803
acc	-7804
arg	-7805
aro	-7806
arv	-7807
cep	-7808
des	-7809
esi	-7810
esp	-7811
fes	-7812
gst	-7813
har	-7814
icu	-7815
ifl	-7816
kno	-7817
lef	-7818
les	-7819
low	-7820
lum	-7821
mes	-7822
nea	-7823
nes	-7824
nob	-7825
noc	-7826
nos	-7827
omm	-7828
omr	-7829
oms	-7830
rog	-7831
stl	-7832
tal	-7833
tar	-7834
wom	-7835
yar	-7836
yes	-7837
aist	-7838
amer	-7839
anes	-7840
anno	-7841
aran	-7842
arat	-7843
arre	-7844
artn	-7845
cand	-7846
cell	-7847
eser	-7848
esou	-7849
etim	-7850
gely	-7851
hich	-7852
icit	-7853
inly	-7854
kers	-7855
lame	-7856
llow	-7857
lock	-7858
lyon	-7859
main	-7860
mall	-7861
mans	-7862
medi	-7863
mere	-7864
ming	-7865
movs	-7866
ndan	-7867
nded	-7868
nden	-7869
ndes	-7870
ndin	-7871
ndis	-7872
ndit	-7873
ndom	-7874
ndre	-7875
near	-7876
neas	-7877
need	-7878
neer	-7879
nelt	-7880
nest	-7881
nger	-7882
nice	-7883
nigh	-7884
nois	-7885
ntry	-7886
ogra	-7887
oing	-7888
olni	-7889
olou	-7890
olut	-7891
omed	-7892
omer	-7893
omes	-7894
omis	-7895
onat	-7896
once	-7897
oned	-7898
onen	-7899
!..	-7900
,..	-7901
..”	-7902
?..	-7903
Aly	-7904
Goo	-7905
HER	-7906
adu	-7907
amb	-7908
amo	-7909
cau	-7910
ele	-7911
hab	-7912
hly	-7913
kle	-7914
lee	-7915
lew	-7916
lye	-7917
lyn	-7918
nly	-7919
ole	-7920
oty	-7921
peo	-7922
ple	-7923
roo	-7924
rut	-7925
tly	-7926
ury	-7927
usy	-7928
wns	-7929
“..	-7930
▁Ha	-7931
▁Iv	-7932
▁ea	-7933
alit	-7934
allo	-7935
atly	-7936
cien	-7937
enef	-7938
enly	-7939
erry	-7940
erst	-7941
gare	-7942
hert	-7943
hest	-7944
ider	-7945
lean	-7946
lear	-7947
ndly	-7948
omat	-7949
ones	-7950
onis	-7951
onom	-7952
onou	-7953
oors	-7954
opst	-7955
oras	-7956
oreb	-7957
oreo	-7958
oret	-7959
orit	-7960
orld	-7961
orou	-7962
orov	-7963
orre	-7964
orry	-7965
orst	-7966
ossi	-7967
otic	-7968
oule	-7969
ourc	-7970
oure	-7971
ourh	-7972
ourt	-7973
ousn	-7974
outb	-7975
outg	-7976
oval	-7977
ovid	-7978
ovin	-7979
ovit	-7980
pain	-7981
peat	-7982
peck	-7983
peed	-7984
pens	-7985
peri	-7986
pied	-7987
pite	-7988
poin	-7989
popp	-7990
ppen	-7991
pper	-7992
ppin	-7993
ppon	-7994
ppor	-7995
ppre	-7996
quir	-7997
rang	-7998
rant	-7999
Fet	-8000
Ost	-8001
Pet	-8002
Zim	-8003
ckl	-8004
ete	-8005
etr	-8006
ets	-8007
ett	-8008
gim	-8009
gle	-8010
gth	-8011
iev	-8012
imi	-8013
imm	-8014
ims	-8015
lim	-8016
lst	-8017
lve	-8018
mpe	-8019
mst	-8020
pet	-8021
ppi	-8022
put	-8023
rst	-8024
see	-8025
ste	-8026
sto	-8027
sty	-8028
tet	-8029
zum	-8030
▁Ta	-8031
▁et	-8032
▁ev	-8033
Evid	-8034
aday	-8035
anim	-8036
arge	-8037
arty	-8038
atve	-8039
ccup	-8040
ccur	-8041
elit	-8042
erem	-8043
erim	-8044
ghty	-8045
iden	-8046
igno	-8047
inst	-8048
leam	-8049
lped	-8050
onst	-8051
onve	-8052
ourl	-8053
owar	-8054
raor	-8055
rary	-8056
rawn	-8057
reas	-8058
rece	-8059
reed	-8060
reem	-8061
reen	-8062
reer	-8063
reet	-8064
rein	-8065
rele	-8066
rell	-8067
rely	-8068
renc	-8069
rend	-8070
rest	-8071
reve	-8072
rier	-8073
rifl	-8074
rike	-8075
ript	-8076
rise	-8077
rita	-8078
rite	-8079
rith	-8080
rium	-8081
roac	-8082
roke	-8083
roll	-8084
ront	-8085
ropp	-8086
rove	-8087
rown	-8088
rubb	-8089
sand	-8090
selv	-8091
sely	-8092
serv	-8093
sour	-8094
ssom	-8095
stac	-8096
stan	-8097
sted	-8098
stil	-8099
--.	-8100
Ugh	-8101
ald	-8102
cef	-8103
cem	-8104
hot	-8105
hse	-8106
ird	-8107
ldh	-8108
ldn	-8109
mse	-8110
nse	-8111
nst	-8112
odk	-8113
olt	-8114
opm	-8115
rse	-8116
seb	-8117
seh	-8118
sev	-8119
stf	-8120
sti	-8121
stm	-8122
ugh	-8123
xce	-8124
yse	-8125
aith	-8126
blem	-8127
ceit	-8128
erfe	-8129
esce	-8130
essf	-8131
ghly	-8132
goth	-8133
grat	-8134
hese	-8135
iked	-8136
imse	-8137
isse	-8138
ithf	-8139
ithm	-8140
lder	-8141
ldly	-8142
ldre	-8143
lver	-8144
mith	-8145
omeh	-8146
orce	-8147
orse	-8148
otou	-8149
sell	-8150
stle	-8151
stly	-8152
stom	-8153
stre	-8154
stum	-8155
tail	-8156
tast	-8157
tent	-8158
teri	-8159
tern	-8160
terw	-8161
thin	-8162
thly	-8163
thre	-8164
tily	-8165
tted	-8166
ture	-8167
uall	-8168
uart	-8169
uent	-8170
uffs	-8171
uild	-8172
uilt	-8173
uist	-8174
ulls	-8175
umul	-8176
unct	-8177
unit	-8178
urat	-8179
ures	-8180
ushk	-8181
utat	-8182
uted	-8183
utif	-8184
vain	-8185
vant	-8186
vech	-8187
vely	-8188
veni	-8189
vera	-8190
verc	-8191
verg	-8192
verl	-8193
vert	-8194
verw	-8195
vest	-8196
vity	-8197
vive	-8198
void	-8199
Fun	-8200
Hay	-8201
aid	-8202
amp	-8203
ayb	-8204
ayl	-8205
ayt	-8206
fus	-8207
goo	-8208
idn	-8209
idr	-8210
irs	-8211
lay	-8212
ldi	-8213
lds	-8214
oid	-8215
opp	-8216
pay	-8217
pid	-8218
rox	-8219
sid	-8220
zel	-8221
▁Va	-8222
alis	-8223
dion	-8224
eked	-8225
emed	-8226
enth	-8227
itul	-8228
laps	-8229
ldes	-8230
lent	-8231
ndid	-8232
nees	-8233
noth	-8234
ntil	-8235
oura	-8236
pent	-8237
righ	-8238
urit	-8239
vous	-8240
vuls	-8241
went	-8242
wild	-8243
xper	-8244
xter	-8245
yone	-8246
yway	-8247
zave	-8248
zily	-8249
zing	-8250
▁Bit	-8251
▁Cro	-8252
▁Dir	-8253
▁Dou	-8254
▁Hea	-8255
▁Mot	-8256
▁Nob	-8257
▁Per	-8258
▁Rou	-8259
▁Sem	-8260
▁Sim	-8261
▁Sof	-8262
▁Som	-8263
▁Son	-8264
▁Whe	-8265
▁Wor	-8266
▁Zah	-8267
▁abj	-8268
▁aff	-8269
▁aim	-8270
▁air	-8271
▁alm	-8272
▁alw	-8273
▁amu	-8274
▁anc	-8275
▁ane	-8276
▁ano	-8277
▁ast	-8278
▁atr	-8279
▁aut	-8280
▁ban	-8281
▁bea	-8282
▁bef	-8283
▁bey	-8284
▁bin	-8285
▁bla	-8286
▁ble	-8287
▁blu	-8288
▁bor	-8289
▁bos	-8290
▁bou	-8291
▁bra	-8292
▁bur	-8293
▁cam	-8294
▁cen	-8295
▁cer	-8296
▁cit	-8297
▁cla	-8298
▁cre	-8299
Boo	-8300
Dir	-8301
adb	-8302
add	-8303
adi	-8304
adm	-8305
adn	-8306
ads	-8307
bow	-8308
cow	-8309
dow	-8310
elc	-8311
fid	-8312
idi	-8313
irc	-8314
iri	-8315
irm	-8316
irr	-8317
kir	-8318
lad	-8319
owd	-8320
owe	-8321
owl	-8322
ppa	-8323
rac	-8324
tid	-8325
uir	-8326
vir	-8327
wad	-8328
▁Fy	-8329
aden	-8330
ades	-8331
adin	-8332
adis	-8333
adly	-8334
ardl	-8335
assf	-8336
blis	-8337
bows	-8338
ects	-8339
ersi	-8340
heck	-8341
heir	-8342
idit	-8343
idle	-8344
idly	-8345
idow	-8346
imid	-8347
irat	-8348
irit	-8349
iron	-8350
irre	-8351
irst	-8352
istl	-8353
ixty	-8354
nthe	-8355
onag	-8356
owly	-8357
ptoe	-8358
tter	-8359
▁cri	-8360
▁cun	-8361
▁dan	-8362
▁deb	-8363
▁dev	-8364
▁dir	-8365
▁doc	-8366
▁dou	-8367
▁dre	-8368
▁dur	-8369
▁ear	-8370
▁eit	-8371
▁ele	-8372
▁emp	-8373
▁fas	-8374
▁fel	-8375
▁fen	-8376
▁fer	-8377
▁fes	-8378
▁fet	-8379
▁fis	-8380
▁fla	-8381
▁fou	-8382
▁gen	-8383
▁ger	-8384
▁ges	-8385
▁gid	-8386
▁gir	-8387
▁gon	-8388
▁gow	-8389
▁guf	-8390
▁hab	-8391
▁hai	-8392
▁ham	-8393
▁han	-8394
▁hap	-8395
▁har	-8396
▁hau	-8397
▁hav	-8398
▁hea	-8399
Sch	-8400
cch	-8401
chl	-8402
cho	-8403
chu	-8404
ech	-8405
fav	-8406
got	-8407
ich	-8408
lov	-8409
nad	-8410
naï	-8411
nch	-8412
nif	-8413
och	-8414
ovn	-8415
ovs	-8416
rch	-8417
sov	-8418
usc	-8419
acul	-8420
ador	-8421
arov	-8422
artu	-8423
blic	-8424
chan	-8425
chse	-8426
cker	-8427
cter	-8428
fter	-8429
hout	-8430
icea	-8431
isch	-8432
mart	-8433
mmer	-8434
nter	-8435
oard	-8436
onov	-8437
outc	-8438
outf	-8439
outr	-8440
oved	-8441
ppro	-8442
sist	-8443
terd	-8444
terf	-8445
terp	-8446
terr	-8447
terv	-8448
trem	-8449
uain	-8450
▁asc	-8451
▁hec	-8452
▁hei	-8453
▁hel	-8454
▁hes	-8455
▁hid	-8456
▁hit	-8457
▁hom	-8458
▁hos	-8459
▁hou	-8460
▁ina	-8461
▁ine	-8462
▁inh	-8463
▁inq	-8464
▁irr	-8465
▁iso	-8466
▁ker	-8467
▁kit	-8468
▁kno	-8469
▁lan	-8470
▁las	-8471
▁lat	-8472
▁len	-8473
▁les	-8474
▁lip	-8475
▁lis	-8476
▁loa	-8477
▁lon	-8478
▁los	-8479
▁lou	-8480
▁mak	-8481
▁mas	-8482
▁mel	-8483
▁mem	-8484
▁mid	-8485
▁moo	-8486
▁mot	-8487
▁mou	-8488
▁mur	-8489
▁nei	-8490
▁nob	-8491
▁non	-8492
▁nos	-8493
▁oat	-8494
▁oft	-8495
▁onc	-8496
▁pan	-8497
▁pap	-8498
▁pas	-8499
Loo	-8500
alc	-8501
alm	-8502
eal	-8503
eck	-8504
gal	-8505
gni	-8506
kee	-8507
loo	-8508
lun	-8509
moo	-8510
oop	-8511
ova	-8512
ovy	-8513
rib	-8514
sal	-8515
tni	-8516
too	-8517
▁AN	-8518
▁Av	-8519
▁Ho	-8520
▁Hu	-8521
▁Si	-8522
▁Te	-8523
▁Tw	-8524
alar	-8525
alat	-8526
alon	-8527
alre	-8528
anal	-8529
atni	-8530
ceal	-8531
cion	-8532
ctan	-8533
dded	-8534
educ	-8535
heel	-8536
hion	-8537
inal	-8538
lave	-8539
nall	-8540
name	-8541
ndal	-8542
nity	-8543
onal	-8544
ooll	-8545
oral	-8546
ouni	-8547
sion	-8548
stoo	-8549
▁Ano	-8550
▁Hen	-8551
▁Hon	-8552
▁atm	-8553
▁clo	-8554
▁dep	-8555
▁fal	-8556
▁goo	-8557
▁pat	-8558
▁phy	-8559
▁pos	-8560
▁pou	-8561
▁pow	-8562
▁pra	-8563
▁qui	-8564
▁rat	-8565
▁rea	-8566
▁ris	-8567
▁roo	-8568
▁rus	-8569
▁sac	-8570
▁sam	-8571
▁san	-8572
▁sci	-8573
▁sel	-8574
▁sem	-8575
▁sen	-8576
▁sep	-8577
▁shi	-8578
▁sho	-8579
▁shu	-8580
▁sid	-8581
▁sim	-8582
▁sis	-8583
▁sle	-8584
▁sme	-8585
▁smi	-8586
▁sni	-8587
▁soc	-8588
▁sof	-8589
▁som	-8590
▁spa	-8591
▁sti	-8592
▁stu	-8593
▁sty	-8594
▁suc	-8595
▁suf	-8596
▁sug	-8597
▁tab	-8598
▁tak	-8599
Cro	-8600
amn	-8601
ams	-8602
aul	-8603
cam	-8604
ems	-8605
fam	-8606
iam	-8607
pri	-8608
ram	-8609
rge	-8610
ric	-8611
rie	-8612
rif	-8613
rik	-8614
riz	-8615
rok	-8616
urc	-8617
xam	-8618
Long	-8619
More	-8620
Will	-8621
alam	-8622
amat	-8623
empe	-8624
erri	-8625
hile	-8626
illn	-8627
ivil	-8628
kull	-8629
mitt	-8630
ndri	-8631
omeb	-8632
omew	-8633
orri	-8634
rial	-8635
ries	-8636
riou	-8637
rive	-8638
some	-8639
stri	-8640
uess	-8641
ushe	-8642
vill	-8643
▁Bot	-8644
▁Ras	-8645
▁Sin	-8646
▁abr	-8647
▁gam	-8648
▁hol	-8649
▁lam	-8650
▁mee	-8651
▁tan	-8652
▁tas	-8653
▁tau	-8654
▁tha	-8655
▁thi	-8656
▁tho	-8657
▁tid	-8658
▁tob	-8659
▁tol	-8660
▁ton	-8661
▁tou	-8662
▁tow	-8663
▁tre	-8664
▁unm	-8665
▁upp	-8666
▁upr	-8667
▁vil	-8668
▁vir	-8669
▁wan	-8670
▁wea	-8671
▁wed	-8672
▁wee	-8673
▁wei	-8674
▁wen	-8675
▁wep	-8676
▁wis	-8677
▁wom	-8678
▁wou	-8679
▁wre	-8680
▁yar	-8681
▁“..	-8682
LCHER	-8683
Would	-8684
acked	-8685
adies	-8686
adily	-8687
adman	-8688
ainst	-8689
aints	-8690
aised	-8691
alcon	-8692
alent	-8693
aling	-8694
allow	-8695
aming	-8696
amned	-8697
amour	-8698
andis	-8699
Gol	-8700
dth	-8701
eli	-8702
fth	-8703
iol	-8704
lfp	-8705
lot	-8706
lth	-8707
mth	-8708
olk	-8709
olo	-8710
olv	-8711
rol	-8712
rth	-8713
sol	-8714
tha	-8715
tif	-8716
vol	-8717
xpe	-8718
yot	-8719
yth	-8720
▁Se	-8721
Less	-8722
agin	-8723
asts	-8724
bits	-8725
came	-8726
eler	-8727
essn	-8728
ifty	-8729
mble	-8730
nted	-8731
olat	-8732
olis	-8733
olit	-8734
olst	-8735
onol	-8736
onth	-8737
oreh	-8738
orth	-8739
othe	-8740
sess	-8741
unat	-8742
usin	-8743
▁ans	-8744
▁ant	-8745
▁clu	-8746
▁cul	-8747
▁fol	-8748
▁lif	-8749
▁lik	-8750
▁liv	-8751
▁nex	-8752
▁sei	-8753
▁soa	-8754
▁sob	-8755
▁sol	-8756
▁sud	-8757
▁sup	-8758
▁sus	-8759
aning	-8760
anion	-8761
antas	-8762
antat	-8763
anton	-8764
apern	-8765
arden	-8766
ardly	-8767
arehe	-8768
arket	-8769
armel	-8770
armly	-8771
arrel	-8772
arter	-8773
artit	-8774
artly	-8775
asier	-8776
asion	-8777
astas	-8778
astid	-8779
ateri	-8780
athed	-8781
ature	-8782
avily	-8783
blish	-8784
cably	-8785
ceful	-8786
chant	-8787
chief	-8788
chill	-8789
ching	-8790
cking	-8791
count	-8792
cover	-8793
ctant	-8794
ctful	-8795
ctive	-8796
dered	-8797
earan	-8798
ected	-8799
act	-8800
ape	-8801
cta	-8802
ctf	-8803
ctn	-8804
ctu	-8805
dot	-8806
gel	-8807
ici	-8808
mot	-8809
nct	-8810
new	-8811
nex	-8812
oti	-8813
pro	-8814
upp	-8815
xem	-8816
yel	-8817
▁ki	-8818
anda	-8819
ande	-8820
andm	-8821
ctat	-8822
ctis	-8823
elay	-8824
elid	-8825
lick	-8826
mand	-8827
oked	-8828
oten	-8829
rand	-8830
tand	-8831
wful	-8832
▁ali	-8833
▁als	-8834
▁alt	-8835
▁bot	-8836
▁bun	-8837
▁kin	-8838
▁kis	-8839
▁lug	-8840
▁pel	-8841
Every	-8842
arred	-8843
artic	-8844
atred	-8845
bject	-8846
cting	-8847
eding	-8848
educt	-8849
eered	-8850
eking	-8851
elity	-8852
emned	-8853
emptu	-8854
endly	-8855
enish	-8856
ental	-8857
entar	-8858
enten	-8859
enter	-8860
entif	-8861
entim	-8862
entle	-8863
entre	-8864
eople	-8865
epers	-8866
erang	-8867
erman	-8868
ermin	-8869
ernau	-8870
ersis	-8871
ertif	-8872
esman	-8873
esque	-8874
essar	-8875
essit	-8876
essly	-8877
esson	-8878
estat	-8879
ester	-8880
etter	-8881
fence	-8882
ffold	-8883
ghing	-8884
ghten	-8885
ghter	-8886
hears	-8887
hment	-8888
hough	-8889
icall	-8890
icent	-8891
icion	-8892
icity	-8893
icked	-8894
iders	-8895
iding	-8896
idity	-8897
iefly	-8898
igant	-8899
Our	-8900
PUL	-8901
bur	-8902
gry	-8903
ifi	-8904
ift	-8905
ifu	-8906
lur	-8907
nec	-8908
nei	-8909
nne	-8910
url	-8911
urr	-8912
urt	-8913
Even	-8914
aces	-8915
alls	-8916
anta	-8917
anti	-8918
call	-8919
cant	-8920
fant	-8921
hain	-8922
hall	-8923
hene	-8924
iall	-8925
iant	-8926
icky	-8927
lete	-8928
lies	-8929
lous	-8930
mage	-8931
nant	-8932
neck	-8933
none	-8934
nowl	-8935
rade	-8936
requ	-8937
riag	-8938
sers	-8939
sfor	-8940
sive	-8941
ssed	-8942
sses	-8943
stif	-8944
tant	-8945
urre	-8946
urri	-8947
vens	-8948
venu	-8949
vish	-8950
▁Tur	-8951
▁doz	-8952
▁pur	-8953
▁rif	-8954
▁tur	-8955
▁wif	-8956
alked	-8957
aller	-8958
antin	-8959
chang	-8960
enant	-8961
igure	-8962
illed	-8963
iller	-8964
illow	-8965
imple	-8966
inall	-8967
inded	-8968
indow	-8969
inegl	-8970
inger	-8971
ingin	-8972
ingle	-8973
ingul	-8974
ining	-8975
inter	-8976
inual	-8977
inued	-8978
ionat	-8979
ioned	-8980
irits	-8981
isive	-8982
istic	-8983
istor	-8984
ithin	-8985
ithou	-8986
itied	-8987
iting	-8988
ittle	-8989
kards	-8990
kerch	-8991
kling	-8992
kovya	-8993
leare	-8994
leman	-8995
leton	-8996
lever	-8997
llion	-8998
lmost	-8999
dra	-9000
emb	-9001
emn	-9002
emp	-9003
epe	-9004
fra	-9005
gem	-9006
mem	-9007
ope	-9008
oss	-9009
pea	-9010
pef	-9011
pra	-9012
tra	-9013
zem	-9014
▁Mo	-9015
▁PA	-9016
▁RA	-9017
▁Ra	-9018
▁Re	-9019
arts	-9020
emer	-9021
emly	-9022
enem	-9023
espe	-9024
ghtf	-9025
idea	-9026
item	-9027
kard	-9028
kept	-9029
mear	-9030
ndem	-9031
orts	-9032
pare	-9033
pell	-9034
perf	-9035
rapp	-9036
roan	-9037
urra	-9038
vard	-9039
wice	-9040
yful	-9041
▁Bac	-9042
▁Dar	-9043
▁Mis	-9044
▁Rom	-9045
▁aba	-9046
▁abo	-9047
▁abu	-9048
▁dee	-9049
▁dej	-9050
▁gra	-9051
▁tai	-9052
▁tap	-9053
▁tra	-9054
arten	-9055
asons	-9056
erate	-9057
ghted	-9058
heart	-9059
icker	-9060
kolni	-9061
leted	-9062
lopst	-9063
lping	-9064
mands	-9065
merly	-9066
miths	-9067
mured	-9068
nable	-9069
natch	-9070
ndeed	-9071
ndent	-9072
nding	-9073
neare	-9074
nifor	-9075
nised	-9076
niver	-9077
nkeep	-9078
nough	-9079
ntain	-9080
oards	-9081
oarse	-9082
oated	-9083
oding	-9084
odion	-9085
oined	-9086
oking	-9087
olent	-9088
ollen	-9089
ologu	-9090
olour	-9091
omant	-9092
oment	-9093
omeon	-9094
omise	-9095
ongly	-9096
oning	-9097
onoun	-9098
onsci	-9099
---	-9100
cil	-9101
cqu	-9102
ffl	-9103
fun	-9104
gge	-9105
oic	-9106
ptu	-9107
rob	-9108
rof	-9109
sic	-9110
tro	-9111
uge	-9112
usa	-9113
usb	-9114
usi	-9115
usl	-9116
vic	-9117
wun	-9118
▁Wh	-9119
amef	-9120
anci	-9121
cert	-9122
cuse	-9123
edro	-9124
eros	-9125
etic	-9126
hous	-9127
icat	-9128
icer	-9129
iece	-9130
itic	-9131
oder	-9132
olun	-9133
ques	-9134
quit	-9135
rood	-9136
rous	-9137
tive	-9138
▁Boo	-9139
▁cro	-9140
▁exh	-9141
▁poi	-9142
▁sau	-9143
▁unh	-9144
amily	-9145
ankru	-9146
arked	-9147
ieces	-9148
ieved	-9149
itive	-9150
omers	-9151
ontan	-9152
onven	-9153
onver	-9154
ooden	-9155
ooked	-9156
oothe	-9157
ordin	-9158
orehe	-9159
oried	-9160
oring	-9161
orked	-9162
ormal	-9163
orner	-9164
orose	-9165
orous	-9166
orter	-9167
ortif	-9168
osely	-9169
oubts	-9170
ouldn	-9171
ounse	-9172
ourin	-9173
ourne	-9174
ourse	-9175
ourth	-9176
outed	-9177
outer	-9178
outly	-9179
outra	-9180
outst	-9181
oving	-9182
oward	-9183
pends	-9184
perly	-9185
perst	-9186
plend	-9187
pover	-9188
ppers	-9189
pprov	-9190
pract	-9191
quain	-9192
redes	-9193
redth	-9194
rembl	-9195
remes	-9196
renzy	-9197
rible	-9198
right	-9199
Zah	-9200
bul	-9201
eil	-9202
gul	-9203
ili	-9204
ilk	-9205
ilu	-9206
mil	-9207
mul	-9208
oil	-9209
oqu	-9210
pul	-9211
sul	-9212
tex	-9213
til	-9214
uil	-9215
uli	-9216
vul	-9217
▁Ba	-9218
Pers	-9219
amil	-9220
ersh	-9221
ersp	-9222
ersu	-9223
esqu	-9224
fash	-9225
ikol	-9226
ilen	-9227
itte	-9228
kolk	-9229
lood	-9230
nitt	-9231
oodn	-9232
oods	-9233
pers	-9234
pitt	-9235
quar	-9236
quis	-9237
ritt	-9238
stul	-9239
ulat	-9240
umst	-9241
wers	-9242
xity	-9243
▁Bed	-9244
▁Bou	-9245
▁cha	-9246
▁chi	-9247
▁equ	-9248
▁lum	-9249
▁obj	-9250
andil	-9251
ayers	-9252
ckers	-9253
eners	-9254
entil	-9255
erson	-9256
estim	-9257
eters	-9258
ideas	-9259
ilent	-9260
ilver	-9261
llers	-9262
olice	-9263
quart	-9264
rious	-9265
rival	-9266
riven	-9267
river	-9268
roach	-9269
roker	-9270
rough	-9271
rowed	-9272
rself	-9273
rucif	-9274
ssess	-9275
ssing	-9276
ssion	-9277
ssive	-9278
stand	-9279
stant	-9280
sterm	-9281
stful	-9282
sting	-9283
stion	-9284
stood	-9285
store	-9286
sured	-9287
tempe	-9288
terly	-9289
ticul	-9290
tired	-9291
tting	-9292
uable	-9293
uddle	-9294
udice	-9295
udies	-9296
uding	-9297
ulous	-9298
umbly	-9299
aud	-9300
aug	-9301
aum	-9302
eps	-9303
epy	-9304
nap	-9305
nau	-9306
nna	-9307
tep	-9308
ubb	-9309
udi	-9310
wep	-9311
▁ja	-9312
▁ju	-9313
Cert	-9314
Know	-9315
dder	-9316
ddre	-9317
kons	-9318
kovy	-9319
lare	-9320
nail	-9321
nown	-9322
nows	-9323
osen	-9324
pies	-9325
reau	-9326
ware	-9327
▁Phe	-9328
▁Pro	-9329
▁Pus	-9330
▁cof	-9331
▁dau	-9332
▁eag	-9333
▁pau	-9334
areer	-9335
arely	-9336
aught	-9337
chool	-9338
esire	-9339
estit	-9340
eties	-9341
inety	-9342
istan	-9343
lance	-9344
nting	-9345
onged	-9346
onger	-9347
ongst	-9348
ostil	-9349
perim	-9350
perty	-9351
ppare	-9352
ricks	-9353
thers	-9354
unger	-9355
unity	-9356
unken	-9357
urios	-9358
urnit	-9359
ushes	-9360
ushin	-9361
usive	-9362
usted	-9363
ustif	-9364
ution	-9365
utive	-9366
utter	-9367
uture	-9368
uzhin	-9369
venly	-9370
vente	-9371
venty	-9372
verhe	-9373
vernm	-9374
verns	-9375
verst	-9376
veryb	-9377
veryw	-9378
vexed	-9379
vidri	-9380
views	-9381
vings	-9382
wning	-9383
xious	-9384
xpect	-9385
▁Afan	-9386
▁Lebe	-9387
▁Marf	-9388
▁Mark	-9389
▁Miss	-9390
▁Nast	-9391
▁Pers	-9392
▁Simp	-9393
▁Thir	-9394
▁Word	-9395
▁abro	-9396
▁abst	-9397
▁abus	-9398
▁acce	-9399
num	-9400
rum	-9401
umb	-9402
umm	-9403
ums	-9404
crif	-9405
enac	-9406
eway	-9407
hedn	-9408
inds	-9409
ippe	-9410
ista	-9411
isti	-9412
lest	-9413
lind	-9414
mind	-9415
mity	-9416
onum	-9417
orta	-9418
ortc	-9419
rind	-9420
rist	-9421
shed	-9422
sity	-9423
tist	-9424
uite	-9425
uman	-9426
umil	-9427
umou	-9428
unty	-9429
vite	-9430
▁agg	-9431
▁ama	-9432
▁lea	-9433
▁lef	-9434
▁ros	-9435
▁swe	-9436
▁usu	-9437
actly	-9438
ality	-9439
arity	-9440
epped	-9441
esign	-9442
ighte	-9443
ightf	-9444
imity	-9445
istin	-9446
istra	-9447
istre	-9448
istri	-9449
onder	-9450
ority	-9451
ortan	-9452
ortes	-9453
ortly	-9454
orway	-9455
pport	-9456
press	-9457
tyard	-9458
ument	-9459
▁actu	-9460
▁ador	-9461
▁affe	-9462
▁alar	-9463
▁alle	-9464
▁alon	-9465
▁aloo	-9466
▁alou	-9467
▁alre	-9468
▁alth	-9469
▁amou	-9470
▁amus	-9471
▁anci	-9472
▁ange	-9473
▁anno	-9474
▁ashe	-9475
▁aske	-9476
▁asle	-9477
▁asse	-9478
▁bead	-9479
▁beas	-9480
▁begg	-9481
▁bind	-9482
▁bird	-9483
▁blan	-9484
▁bott	-9485
▁brim	-9486
▁brus	-9487
▁bust	-9488
▁cabb	-9489
▁cand	-9490
▁canv	-9491
▁card	-9492
▁caus	-9493
▁chan	-9494
▁chas	-9495
▁chee	-9496
▁chem	-9497
▁choo	-9498
▁chur	-9499
igg	-9500
igi	-9501
igu	-9502
mpt	-9503
odg	-9504
pti	-9505
pto	-9506
pty	-9507
tig	-9508
try	-9509
upt	-9510
vod	-9511
wnb	-9512
▁Li	-9513
▁Lo	-9514
▁Lu	-9515
alig	-9516
arry	-9517
atig	-9518
dice	-9519
happ	-9520
hree	-9521
icem	-9522
iffe	-9523
igni	-9524
itef	-9525
itig	-9526
llig	-9527
lown	-9528
odge	-9529
odor	-9530
oice	-9531
owry	-9532
pted	-9533
rash	-9534
rubs	-9535
urry	-9536
vice	-9537
▁Lad	-9538
▁Lat	-9539
▁Loo	-9540
▁Lor	-9541
▁bod	-9542
▁fav	-9543
▁nec	-9544
▁nut	-9545
▁que	-9546
Creat	-9547
ainty	-9548
entry	-9549
igare	-9550
igent	-9551
itely	-9552
olite	-9553
ption	-9554
ptive	-9555
quite	-9556
reath	-9557
reatu	-9558
rovna	-9559
sovna	-9560
▁Less	-9561
▁List	-9562
▁coar	-9563
▁comf	-9564
▁comr	-9565
▁cong	-9566
▁conj	-9567
▁cope	-9568
▁cove	-9569
▁cred	-9570
▁crum	-9571
▁crus	-9572
▁curt	-9573
▁cust	-9574
▁dand	-9575
▁deat	-9576
▁dece	-9577
▁deed	-9578
▁defe	-9579
▁depe	-9580
▁deta	-9581
▁deve	-9582
▁diff	-9583
▁disa	-9584
▁dise	-9585
▁dism	-9586
▁dran	-9587
▁drin	-9588
▁drow	-9589
▁endu	-9590
▁enth	-9591
▁entr	-9592
▁espe	-9593
▁exem	-9594
▁exer	-9595
▁expe	-9596
▁fail	-9597
▁fain	-9598
▁fare	-9599
agg	-9600
agn	-9601
eop	-9602
gag	-9603
iac	-9604
mag	-9605
ops	-9606
tty	-9607
wls	-9608
xte	-9609
xty	-9610
Vass	-9611
agge	-9612
assi	-9613
assp	-9614
ccas	-9615
cide	-9616
erty	-9617
etty	-9618
ifte	-9619
imag	-9620
lady	-9621
lass	-9622
oped	-9623
opel	-9624
opes	-9625
ostl	-9626
pass	-9627
peak	-9628
peop	-9629
post	-9630
rass	-9631
rete	-9632
ride	-9633
tely	-9634
uell	-9635
utte	-9636
▁bag	-9637
▁val	-9638
▁vod	-9639
assed	-9640
cound	-9641
esert	-9642
eside	-9643
foreh	-9644
found	-9645
ifled	-9646
impot	-9647
llest	-9648
lyona	-9649
nderc	-9650
ndert	-9651
ostly	-9652
otton	-9653
ourte	-9654
ourty	-9655
pound	-9656
ppear	-9657
ptian	-9658
teous	-9659
udder	-9660
under	-9661
▁afra	-9662
▁afre	-9663
▁atte	-9664
▁clas	-9665
▁clot	-9666
▁clou	-9667
▁clum	-9668
▁curs	-9669
▁dayl	-9670
▁faul	-9671
▁fitt	-9672
▁fles	-9673
▁flow	-9674
▁flun	-9675
▁fold	-9676
▁forc	-9677
▁forw	-9678
▁fram	-9679
▁fran	-9680
▁fres	-9681
▁fron	-9682
▁gall	-9683
▁goss	-9684
▁gown	-9685
▁grim	-9686
▁griz	-9687
▁haul	-9688
▁hect	-9689
▁hist	-9690
▁hous	-9691
▁hund	-9692
▁husb	-9693
▁impl	-9694
▁impr	-9695
▁incl	-9696
▁inev	-9697
▁infl	-9698
▁inte	-9699
Eng	-9700
bli	-9701
ngl	-9702
ypo	-9703
Jack	-9704
azem	-9705
cure	-9706
each	-9707
esta	-9708
esti	-9709
hink	-9710
icks	-9711
kenn	-9712
nges	-9713
oken	-9714
ooks	-9715
oubl	-9716
oung	-9717
pest	-9718
reng	-9719
rink	-9720
ssip	-9721
sure	-9722
tack	-9723
umbl	-9724
abbed	-9725
asure	-9726
ciall	-9727
cture	-9728
erest	-9729
estin	-9730
hness	-9731
icken	-9732
ickly	-9733
kable	-9734
kness	-9735
ldest	-9736
mbled	-9737
mness	-9738
ndure	-9739
ngest	-9740
onest	-9741
reser	-9742
riest	-9743
roken	-9744
tance	-9745
vance	-9746
yance	-9747
▁brid	-9748
▁brot	-9749
▁brut	-9750
▁bure	-9751
▁itse	-9752
▁jaun	-9753
▁lead	-9754
▁lean	-9755
▁leap	-9756
▁lear	-9757
▁leat	-9758
▁leng	-9759
▁leve	-9760
▁ligh	-9761
▁lodg	-9762
▁magn	-9763
▁mana	-9764
▁mang	-9765
▁mani	-9766
▁mank	-9767
▁mann	-9768
▁manu	-9769
▁mayb	-9770
▁meal	-9771
▁ment	-9772
▁mone	-9773
▁myse	-9774
▁nois	-9775
▁notc	-9776
▁noth	-9777
▁noti	-9778
▁offe	-9779
▁opin	-9780
▁orat	-9781
▁ough	-9782
▁outb	-9783
▁outc	-9784
▁outf	-9785
▁outg	-9786
▁outs	-9787
▁pant	-9788
▁pare	-9789
▁pens	-9790
▁perh	-9791
▁perp	-9792
▁pett	-9793
▁plun	-9794
▁pock	-9795
▁poig	-9796
▁popp	-9797
▁poss	-9798
▁poun	-9799
HAP	-9800
Kap	-9801
aff	-9802
cap	-9803
eap	-9804
ffe	-9805
hap	-9806
lap	-9807
lud	-9808
oci	-9809
pap	-9810
rud	-9811
sci	-9812
udg	-9813
▁Ex	-9814
▁Ko	-9815
apit	-9816
avem	-9817
avet	-9818
ciet	-9819
erci	-9820
heap	-9821
hent	-9822
hysi	-9823
impo	-9824
itud	-9825
izen	-9826
nate	-9827
nten	-9828
ntou	-9829
perc	-9830
reci	-9831
rent	-9832
roci	-9833
rowb	-9834
rowd	-9835
uden	-9836
udge	-9837
udic	-9838
▁Gol	-9839
▁rap	-9840
anium	-9841
bable	-9842
bably	-9843
conom	-9844
eable	-9845
enate	-9846
impat	-9847
imper	-9848
itate	-9849
odern	-9850
omani	-9851
pable	-9852
terfe	-9853
trave	-9854
udent	-9855
ulate	-9856
urate	-9857
vanit	-9858
vanov	-9859
▁Marm	-9860
▁anyw	-9861
▁chie	-9862
▁flan	-9863
▁flas	-9864
▁flus	-9865
▁heap	-9866
▁howe	-9867
▁lett	-9868
▁prej	-9869
▁pres	-9870
▁prot	-9871
▁prou	-9872
▁ques	-9873
▁radi	-9874
▁rais	-9875
▁rand	-9876
▁reac	-9877
▁rece	-9878
▁redd	-9879
▁refr	-9880
▁rein	-9881
▁relu	-9882
▁reve	-9883
▁riot	-9884
▁rous	-9885
▁ruff	-9886
▁rupt	-9887
▁rust	-9888
▁saus	-9889
▁scen	-9890
▁scor	-9891
▁scre	-9892
▁sear	-9893
▁seco	-9894
▁seve	-9895
▁shad	-9896
▁sham	-9897
▁shar	-9898
▁shed	-9899
Oft	-9900
abb	-9901
fts	-9902
iab	-9903
jac	-9904
phy	-9905
▁Kl	-9906
▁Ne	-9907
▁Ow	-9908
acce	-9909
ache	-9910
alia	-9911
ankr	-9912
arac	-9913
aria	-9914
athy	-9915
chen	-9916
eres	-9917
fted	-9918
ftly	-9919
iage	-9920
ilde	-9921
ildh	-9922
odya	-9923
pose	-9924
uade	-9925
vate	-9926
▁Fin	-9927
▁	-9928
e	-9929
t	-9930
a	-9931
o	-9932
n	-9933
h	-9934
i	-9935
s	-9936
r	-9937
d	-9938
l	-9939
u	-9940
m	-9941
w	-9942
y	-9943
g	-9944
c	-9945
f	-9946
,	-9947
p	-9948
.	-9949
b	-9950
v	-9951
k	-9952
I	-9953
’	-9954
“	-9955
-	-9956
”	-9957
!	-9958
A	-9959
H	-9960
T	-9961
?	-9962
S	-9963
x	-9964
;	-9965
D	-9966
W	-9967
R	-9968
M	-9969
j	-9970
B	-9971
z	-9972
P	-9973
q	-9974
L	-9975
_	-9976
‘	-9977
G	-9978
N	-9979
Y	-9980
:	-9981
O	-9982
F	-9983
K	-9984
C	-9985
(	-9986
)	-9987
E	-9988
ï	-9989
V	-9990
J	-9991
Z	-9992
U	-9993
Q	-9994
